<unk> 0
<|nospeech|> 1
<pad> 2
<|endoftext|> 3
<|startoftranscript|> 4
<|pnc|> 5
<|nopnc|> 6
<|startofcontext|> 7
<|itn|> 8
<|noitn|> 9
<|timestamp|> 10
<|notimestamp|> 11
<|diarize|> 12
<|nodiarize|> 13
<|spkchange|> 14
<|audioseparator|> 15
<|emo:undefined|> 16
<|emo:neutral|> 17
<|emo:happy|> 18
<|emo:sad|> 19
<|emo:angry|> 20
<|unklang|> 21
<|aa|> 22
<|ab|> 23
<|af|> 24
<|ak|> 25
<|sq|> 26
<|am|> 27
<|ar|> 28
<|an|> 29
<|hy|> 30
<|as|> 31
<|av|> 32
<|ae|> 33
<|ay|> 34
<|az|> 35
<|bm|> 36
<|ba|> 37
<|eu|> 38
<|be|> 39
<|bn|> 40
<|bi|> 41
<|bs|> 42
<|br|> 43
<|bg|> 44
<|my|> 45
<|ca|> 46
<|ch|> 47
<|ce|> 48
<|ny|> 49
<|zh|> 50
<|cu|> 51
<|cv|> 52
<|kw|> 53
<|co|> 54
<|cr|> 55
<|hr|> 56
<|cs|> 57
<|da|> 58
<|dv|> 59
<|nl|> 60
<|dz|> 61
<|en|> 62
<|eo|> 63
<|et|> 64
<|ee|> 65
<|fo|> 66
<|fj|> 67
<|fi|> 68
<|fr|> 69
<|fy|> 70
<|ff|> 71
<|gd|> 72
<|gl|> 73
<|lg|> 74
<|ka|> 75
<|de|> 76
<|el|> 77
<|kl|> 78
<|gn|> 79
<|gu|> 80
<|ht|> 81
<|ha|> 82
<|he|> 83
<|hz|> 84
<|hi|> 85
<|ho|> 86
<|hu|> 87
<|is|> 88
<|io|> 89
<|ig|> 90
<|id|> 91
<|ia|> 92
<|ie|> 93
<|iu|> 94
<|ik|> 95
<|ga|> 96
<|it|> 97
<|ja|> 98
<|jv|> 99
<|kn|> 100
<|kr|> 101
<|ks|> 102
<|kk|> 103
<|km|> 104
<|ki|> 105
<|rw|> 106
<|ky|> 107
<|kv|> 108
<|kg|> 109
<|ko|> 110
<|kj|> 111
<|ku|> 112
<|lo|> 113
<|la|> 114
<|lv|> 115
<|li|> 116
<|ln|> 117
<|lt|> 118
<|lu|> 119
<|lb|> 120
<|mk|> 121
<|mg|> 122
<|ms|> 123
<|ml|> 124
<|mt|> 125
<|gv|> 126
<|mi|> 127
<|mr|> 128
<|mh|> 129
<|mn|> 130
<|na|> 131
<|nv|> 132
<|nd|> 133
<|nr|> 134
<|ng|> 135
<|ne|> 136
<|no|> 137
<|nb|> 138
<|nn|> 139
<|oc|> 140
<|oj|> 141
<|or|> 142
<|om|> 143
<|os|> 144
<|pi|> 145
<|ps|> 146
<|fa|> 147
<|pl|> 148
<|pt|> 149
<|pa|> 150
<|qu|> 151
<|ro|> 152
<|rm|> 153
<|rn|> 154
<|ru|> 155
<|se|> 156
<|sm|> 157
<|sg|> 158
<|sa|> 159
<|sc|> 160
<|sr|> 161
<|sn|> 162
<|sd|> 163
<|si|> 164
<|sk|> 165
<|sl|> 166
<|so|> 167
<|st|> 168
<|es|> 169
<|su|> 170
<|sw|> 171
<|ss|> 172
<|sv|> 173
<|tl|> 174
<|ty|> 175
<|tg|> 176
<|ta|> 177
<|tt|> 178
<|te|> 179
<|th|> 180
<|bo|> 181
<|ti|> 182
<|to|> 183
<|ts|> 184
<|tn|> 185
<|tr|> 186
<|tk|> 187
<|tw|> 188
<|ug|> 189
<|uk|> 190
<|ur|> 191
<|uz|> 192
<|ve|> 193
<|vi|> 194
<|vo|> 195
<|wa|> 196
<|cy|> 197
<|wo|> 198
<|xh|> 199
<|ii|> 200
<|yi|> 201
<|yo|> 202
<|za|> 203
<|zu|> 204
<|spk0|> 205
<|spk1|> 206
<|spk2|> 207
<|spk3|> 208
<|spk4|> 209
<|spk5|> 210
<|spk6|> 211
<|spk7|> 212
<|spk8|> 213
<|spk9|> 214
<|spk10|> 215
<|spk11|> 216
<|spk12|> 217
<|spk13|> 218
<|spk14|> 219
<|spk15|> 220
<|spltoken0|> 221
<|spltoken1|> 222
<|spltoken2|> 223
<|spltoken3|> 224
<|spltoken4|> 225
<|spltoken5|> 226
<|spltoken6|> 227
<|spltoken7|> 228
<|spltoken8|> 229
<|spltoken9|> 230
<|spltoken10|> 231
<|spltoken11|> 232
<|spltoken12|> 233
<|spltoken13|> 234
<|spltoken14|> 235
<|spltoken15|> 236
<|spltoken16|> 237
<|spltoken17|> 238
<|spltoken18|> 239
<|spltoken19|> 240
<|spltoken20|> 241
<|spltoken21|> 242
<|spltoken22|> 243
<|spltoken23|> 244
<|spltoken24|> 245
<|spltoken25|> 246
<|spltoken26|> 247
<|spltoken27|> 248
<|spltoken28|> 249
<|spltoken29|> 250
<|spltoken30|> 251
<|spltoken31|> 252
<|spltoken32|> 253
<|spltoken33|> 254
<0x00> 255
<0x01> 256
<0x02> 257
<0x03> 258
<0x04> 259
<0x05> 260
<0x06> 261
<0x07> 262
<0x08> 263
<0x09> 264
<0x0A> 265
<0x0B> 266
<0x0C> 267
<0x0D> 268
<0x0E> 269
<0x0F> 270
<0x10> 271
<0x11> 272
<0x12> 273
<0x13> 274
<0x14> 275
<0x15> 276
<0x16> 277
<0x17> 278
<0x18> 279
<0x19> 280
<0x1A> 281
<0x1B> 282
<0x1C> 283
<0x1D> 284
<0x1E> 285
<0x1F> 286
<0x20> 287
<0x21> 288
<0x22> 289
<0x23> 290
<0x24> 291
<0x25> 292
<0x26> 293
<0x27> 294
<0x28> 295
<0x29> 296
<0x2A> 297
<0x2B> 298
<0x2C> 299
<0x2D> 300
<0x2E> 301
<0x2F> 302
<0x30> 303
<0x31> 304
<0x32> 305
<0x33> 306
<0x34> 307
<0x35> 308
<0x36> 309
<0x37> 310
<0x38> 311
<0x39> 312
<0x3A> 313
<0x3B> 314
<0x3C> 315
<0x3D> 316
<0x3E> 317
<0x3F> 318
<0x40> 319
<0x41> 320
<0x42> 321
<0x43> 322
<0x44> 323
<0x45> 324
<0x46> 325
<0x47> 326
<0x48> 327
<0x49> 328
<0x4A> 329
<0x4B> 330
<0x4C> 331
<0x4D> 332
<0x4E> 333
<0x4F> 334
<0x50> 335
<0x51> 336
<0x52> 337
<0x53> 338
<0x54> 339
<0x55> 340
<0x56> 341
<0x57> 342
<0x58> 343
<0x59> 344
<0x5A> 345
<0x5B> 346
<0x5C> 347
<0x5D> 348
<0x5E> 349
<0x5F> 350
<0x60> 351
<0x61> 352
<0x62> 353
<0x63> 354
<0x64> 355
<0x65> 356
<0x66> 357
<0x67> 358
<0x68> 359
<0x69> 360
<0x6A> 361
<0x6B> 362
<0x6C> 363
<0x6D> 364
<0x6E> 365
<0x6F> 366
<0x70> 367
<0x71> 368
<0x72> 369
<0x73> 370
<0x74> 371
<0x75> 372
<0x76> 373
<0x77> 374
<0x78> 375
<0x79> 376
<0x7A> 377
<0x7B> 378
<0x7C> 379
<0x7D> 380
<0x7E> 381
<0x7F> 382
<0x80> 383
<0x81> 384
<0x82> 385
<0x83> 386
<0x84> 387
<0x85> 388
<0x86> 389
<0x87> 390
<0x88> 391
<0x89> 392
<0x8A> 393
<0x8B> 394
<0x8C> 395
<0x8D> 396
<0x8E> 397
<0x8F> 398
<0x90> 399
<0x91> 400
<0x92> 401
<0x93> 402
<0x94> 403
<0x95> 404
<0x96> 405
<0x97> 406
<0x98> 407
<0x99> 408
<0x9A> 409
<0x9B> 410
<0x9C> 411
<0x9D> 412
<0x9E> 413
<0x9F> 414
<0xA0> 415
<0xA1> 416
<0xA2> 417
<0xA3> 418
<0xA4> 419
<0xA5> 420
<0xA6> 421
<0xA7> 422
<0xA8> 423
<0xA9> 424
<0xAA> 425
<0xAB> 426
<0xAC> 427
<0xAD> 428
<0xAE> 429
<0xAF> 430
<0xB0> 431
<0xB1> 432
<0xB2> 433
<0xB3> 434
<0xB4> 435
<0xB5> 436
<0xB6> 437
<0xB7> 438
<0xB8> 439
<0xB9> 440
<0xBA> 441
<0xBB> 442
<0xBC> 443
<0xBD> 444
<0xBE> 445
<0xBF> 446
<0xC0> 447
<0xC1> 448
<0xC2> 449
<0xC3> 450
<0xC4> 451
<0xC5> 452
<0xC6> 453
<0xC7> 454
<0xC8> 455
<0xC9> 456
<0xCA> 457
<0xCB> 458
<0xCC> 459
<0xCD> 460
<0xCE> 461
<0xCF> 462
<0xD0> 463
<0xD1> 464
<0xD2> 465
<0xD3> 466
<0xD4> 467
<0xD5> 468
<0xD6> 469
<0xD7> 470
<0xD8> 471
<0xD9> 472
<0xDA> 473
<0xDB> 474
<0xDC> 475
<0xDD> 476
<0xDE> 477
<0xDF> 478
<0xE0> 479
<0xE1> 480
<0xE2> 481
<0xE3> 482
<0xE4> 483
<0xE5> 484
<0xE6> 485
<0xE7> 486
<0xE8> 487
<0xE9> 488
<0xEA> 489
<0xEB> 490
<0xEC> 491
<0xED> 492
<0xEE> 493
<0xEF> 494
<0xF0> 495
<0xF1> 496
<0xF2> 497
<0xF3> 498
<0xF4> 499
<0xF5> 500
<0xF6> 501
<0xF7> 502
<0xF8> 503
<0xF9> 504
<0xFA> 505
<0xFB> 506
<0xFC> 507
<0xFD> 508
<0xFE> 509
<0xFF> 510
▁t 511
▁a 512
er 513
en 514
in 515
▁th 516
▁s 517
▁d 518
on 519
es 520
▁w 521
▁c 522
▁p 523
at 524
re 525
an 526
▁the 527
▁o 528
▁m 529
is 530
it 531
▁h 532
ou 533
▁l 534
▁b 535
or 536
ar 537
▁f 538
▁n 539
nd 540
as 541
al 542
ch 543
▁e 544
ing 545
▁to 546
ed 547
▁in 548
▁g 549
om 550
ent 551
el 552
os 553
▁of 554
qu 555
▁and 556
▁u 557
le 558
▁v 559
▁de 560
ion 561
▁y 562
▁I 563
ro 564
et 565
ic 566
il 567
▁qu 568
am 569
ut 570
ad 571
us 572
▁you 573
▁that 574
est 575
ve 576
im 577
ie 578
id 579
▁is 580
ow 581
ot 582
▁A 583
▁re 584
ra 585
▁be 586
ig 587
▁S 588
ol 589
▁wh 590
ur 591
ere 592
▁it 593
▁on 594
ir 595
▁al 596
▁r 597
▁T 598
em 599
▁k 600
ct 601
ly 602
ay 603
st 604
▁ha 605
▁j 606
▁E 607
▁st 608
▁con 609
▁we 610
▁i 611
▁se 612
he 613
▁for 614
▁que 615
ce 616
un 617
▁com 618
ver 619
▁un 620
ant 621
▁an 622
ich 623
▁la 624
ci 625
ter 626
▁C 627
▁en 628
ess 629
▁as 630
▁di 631
▁P 632
▁do 633
od 634
▁M 635
ke 636
ul 637
and 638
▁pro 639
▁he 640
▁D 641
ith 642
▁τ 643
ri 644
ation 645
▁was 646
▁W 647
▁B 648
▁z 649
▁so 650
▁this 651
te 652
▁le 653
▁par 654
▁with 655
pe 656
ag 657
th 658
▁me 659
ld 660
ell 661
▁li 662
▁go 663
ers 664
ht 665
▁have 666
▁su 667
▁ch 668
▁ne 669
end 670
ill 671
ab 672
▁pr 673
ist 674
ac 675
▁not 676
▁at 677
ust 678
um 679
▁ab 680
▁π 681
▁are 682
ort 683
pp 684
se 685
ου 686
ia 687
▁tr 688
▁ma 689
▁N 690
▁L 691
▁or 692
▁O 693
▁H 694
▁ex 695
op 696
▁no 697
ore 698
▁all 699
to 700
ight 701
ould 702
ally 703
▁κ 704
▁est 705
ão 706
αι 707
ind 708
our 709
▁G 710
iv 711
ff 712
▁fr 713
▁And 714
▁α 715
▁lo 716
ment 717
ate 718
out 719
▁can 720
▁Th 721
▁So 722
▁ε 723
▁σ 724
▁per 725
▁they 726
▁es 727
▁but 728
ous 729
▁U 730
▁sh 731
▁ver 732
ta 733
▁kn 734
▁fa 735
▁F 736
▁ا 737
ard 738
▁1 739
▁im 740
ome 741
ge 742
▁R 743
ok 744
so 745
▁like 746
με 747
ud 748
▁The 749
la 750
ine 751
▁there 752
▁know 753
▁Y 754
▁by 755
li 756
▁die 757
▁wor 758
▁des 759
να 760
▁what 761
ng 762
ca 763
all 764
uch 765
iz 766
▁el 767
ak 768
▁from 769
ive 770
ει 771
▁J 772
uro 773
▁und 774
ity 775
ans 776
▁2 777
▁just 778
ost 779
▁one 780
are 781
ber 782
▁man 783
▁my 784
ier 785
▁pe 786
▁sa 787
ass 788
ese 789
▁te 790
ure 791
▁don 792
▁his 793
ne 794
ens 795
▁이 796
ente 797
▁had 798
oc 799
ast 800
ink 801
▁up 802
her 803
▁pl 804
iss 805
▁che 806
▁out 807
oug 808
ap 809
▁V 810
ien 811
▁if 812
▁da 813
▁which 814
ma 815
ide 816
▁about 817
▁그 818
ια 819
og 820
▁your 821
ies 822
ικ 823
use 824
ue 825
▁ar 826
ach 827
ij 828
▁ag 829
pr 830
▁é 831
▁will 832
ond 833
▁ال 834
▁cont 835
if 836
ose 837
ib 838
▁us 839
▁si 840
ame 841
▁ac 842
ze 843
▁K 844
per 845
▁quest 846
ong 847
▁some 848
▁del 849
▁sp 850
▁δ 851
art 852
ord 853
ven 854
▁ad 855
ions 856
ire 857
▁her 858
▁comp 859
ón 860
ione 861
ung 862
▁il 863
▁imp 864
▁think 865
▁der 866
▁part 867
ime 868
▁get 869
▁να 870
▁τη 871
▁going 872
▁pre 873
ah 874
▁would 875
ρο 876
be 877
ain 878
▁them 879
▁gr 880
io 881
cause 882
ack 883
▁It 884
▁đ 885
nt 886
μα 887
▁res 888
▁then 889
▁inter 890
▁who 891
▁à 892
▁dis 893
ll 894
ite 895
itt 896
zy 897
▁et 898
▁were 899
▁mo 900
ang 901
▁em 902
ann 903
orm 904
▁και 905
oss 906
pt 907
ound 908
▁ser 909
▁when 910
▁ge 911
ther 912
ice 913
▁co 914
τα 915
▁more 916
▁Euro 917
▁er 918
▁our 919
▁has 920
one 921
πο 922
▁We 923
que 924
icht 925
▁po 926
ank 927
ect 928
▁por 929
ado 930
ough 931
▁here 932
pl 933
▁am 934
▁very 935
▁In 936
00 937
ck 938
▁see 939
▁also 940
▁want 941
▁comm 942
▁because 943
wo 944
▁their 945
ade 946
▁thing 947
τε 948
▁para 949
▁cl 950
ru 951
▁act 952
du 953
▁ein 954
ση 955
age 956
▁fe 957
omm 958
▁ro 959
ry 960
ople 961
▁she 962
ult 963
ip 964
▁um 965
▁das 966
▁him 967
▁right 968
int 969
▁ye 970
▁been 971
▁les 972
ont 973
▁na 974
▁say 975
▁dat 976
go 977
▁ent 978
▁now 979
▁ob 980
ons 981
▁people 982
▁au 983
ica 984
che 985
ale 986
▁how 987
▁ra 988
reat 989
▁over 990
de 991
▁vo 992
▁any 993
ament 994
▁work 995
▁tra 996
ance 997
▁je 998
▁time 999
ft 1000
▁γ 1001
ish 1002
gen 1003
▁these 1004
▁una 1005
▁look 1006
τη 1007
▁μ 1008
▁pu 1009
니다 1010
we 1011
▁You 1012
able 1013
ία 1014
▁ter 1015
▁ever 1016
hr 1017
gr 1018
bl 1019
▁το 1020
▁los 1021
▁Un 1022
cess 1023
ence 1024
▁wir 1025
▁really 1026
iel 1027
▁qui 1028
vel 1029
▁op 1030
bi 1031
ces 1032
ρα 1033
▁other 1034
ble 1035
▁into 1036
az 1037
ten 1038
▁pas 1039
▁있 1040
ep 1041
hing 1042
wn 1043
▁ist 1044
ign 1045
av 1046
au 1047
▁den 1048
ito 1049
ρι 1050
το 1051
ben 1052
▁pol 1053
ase 1054
ely 1055
ick 1056
ίν 1057
und 1058
ree 1059
▁col 1060
▁θ 1061
ção 1062
cl 1063
den 1064
lich 1065
ων 1066
ement 1067
▁tem 1068
ations 1069
ors 1070
▁Wh 1071
amos 1072
res 1073
▁much 1074
▁sch 1075
ars 1076
▁ό 1077
▁said 1078
▁cons 1079
▁need 1080
▁diff 1081
uss 1082
▁έ 1083
▁app 1084
▁But 1085
▁eu 1086
ction 1087
omet 1088
lo 1089
ato 1090
uy 1091
▁way 1092
▁reg 1093
me 1094
ando 1095
▁sol 1096
▁Ε 1097
▁inf 1098
▁du 1099
▁ta 1100
na 1101
▁did 1102
τι 1103
ied 1104
▁where 1105
▁ο 1106
ile 1107
▁20 1108
▁tod 1109
▁br 1110
▁Europe 1111
ated 1112
▁could 1113
▁uh 1114
▁het 1115
ada 1116
elf 1117
▁è 1118
▁ph 1119
▁van 1120
own 1121
▁son 1122
ción 1123
▁every 1124
▁fin 1125
der 1126
▁fir 1127
ary 1128
▁non 1129
▁cou 1130
amo 1131
way 1132
▁import 1133
alk 1134
▁bo 1135
▁bet 1136
▁ich 1137
▁و 1138
ical 1139
ian 1140
▁av 1141
▁하 1142
ür 1143
▁Al 1144
ple 1145
▁pres 1146
▁well 1147
▁rec 1148
υτ 1149
▁St 1150
ug 1151
▁two 1152
ually 1153
▁come 1154
ουμε 1155
▁pers 1156
▁mar 1157
▁spe 1158
▁back 1159
ual 1160
▁off 1161
za 1162
cia 1163
▁got 1164
ora 1165
ici 1166
▁min 1167
▁για 1168
▁sur 1169
▁good 1170
ater 1171
▁met 1172
▁af 1173
▁somet 1174
ition 1175
ise 1176
ante 1177
▁3 1178
▁En 1179
▁sc 1180
ai 1181
▁cr 1182
chen 1183
▁م 1184
▁first 1185
▁those 1186
ittle 1187
▁again 1188
.. 1189
▁pour 1190
kt 1191
▁may 1192
amente 1193
▁let 1194
▁auch 1195
▁ho 1196
zi 1197
▁That 1198
act 1199
▁make 1200
▁não 1201
▁little 1202
ari 1203
▁rel 1204
▁Q 1205
▁dire 1206
▁dem 1207
▁kind 1208
▁str 1209
▁την 1210
▁gen 1211
νο 1212
ern 1213
λο 1214
τικ 1215
▁zu 1216
▁dec 1217
mo 1218
▁should 1219
▁car 1220
tain 1221
▁things 1222
▁με 1223
▁아 1224
▁las 1225
▁συ 1226
ents 1227
▁nicht 1228
no 1229
▁than 1230
▁ele 1231
▁This 1232
fe 1233
▁only 1234
mer 1235
▁prop 1236
ça 1237
és 1238
▁thr 1239
▁bl 1240
kay 1241
▁Par 1242
bre 1243
▁pa 1244
▁under 1245
ild 1246
▁He 1247
▁een 1248
▁ke 1249
▁its 1250
▁pod 1251
vers 1252
πό 1253
▁even 1254
▁Z 1255
ving 1256
cial 1257
▁Se 1258
▁sy 1259
xt 1260
▁dell 1261
ful 1262
fore 1263
▁αυτ 1264
▁inst 1265
▁ap 1266
▁differ 1267
ory 1268
▁lot 1269
です 1270
ais 1271
▁ten 1272
▁ind 1273
▁어 1274
co 1275
▁down 1276
▁through 1277
▁new 1278
ía 1279
vo 1280
ved 1281
▁tak 1282
ha 1283
br 1284
ίναι 1285
get 1286
▁bel 1287
▁talk 1288
▁something 1289
▁cu 1290
fer 1291
▁bu 1292
▁inv 1293
▁poss 1294
▁ess 1295
oll 1296
▁κα 1297
▁aqu 1298
▁sec 1299
▁ce 1300
ced 1301
red 1302
▁mais 1303
gan 1304
▁une 1305
że 1306
pa 1307
cy 1308
▁ty 1309
▁uma 1310
▁pra 1311
って 1312
▁day 1313
ολ 1314
ati 1315
▁πρ 1316
▁De 1317
▁ass 1318
▁του 1319
▁hel 1320
▁os 1321
nh 1322
▁mod 1323
▁att 1324
pect 1325
ject 1326
igh 1327
▁pos 1328
les 1329
▁take 1330
▁cer 1331
ning 1332
▁tam 1333
▁use 1334
▁προ 1335
ident 1336
ial 1337
▁acc 1338
▁int 1339
ho 1340
▁trans 1341
emos 1342
ido 1343
itu 1344
▁ve 1345
ento 1346
▁call 1347
▁euro 1348
▁actually 1349
je 1350
▁vous 1351
▁great 1352
εί 1353
▁most 1354
ού 1355
tre 1356
other 1357
ates 1358
iet 1359
▁Be 1360
ty 1361
nen 1362
▁start 1363
▁Ch 1364
ict 1365
▁war 1366
▁Re 1367
▁θα 1368
zie 1369
▁dans 1370
▁proble 1371
▁είναι 1372
row 1373
con 1374
ico 1375
ody 1376
▁set 1377
▁cor 1378
ados 1379
ible 1380
▁person 1381
▁long 1382
anto 1383
▁being 1384
▁after 1385
▁η 1386
▁που 1387
▁aut 1388
▁ev 1389
▁No 1390
▁real 1391
va 1392
εν 1393
ting 1394
▁point 1395
ath 1396
▁pass 1397
▁υ 1398
ought 1399
ti 1400
▁put 1401
ner 1402
▁사 1403
▁dé 1404
▁does 1405
ins 1406
▁nh 1407
ás 1408
cer 1409
▁many 1410
▁ب 1411
▁bas 1412
ken 1413
▁different 1414
▁hand 1415
▁5 1416
po 1417
▁Comm 1418
▁happ 1419
olog 1420
πα 1421
ni 1422
ny 1423
▁fo 1424
▁men 1425
▁mon 1426
▁dass 1427
▁cour 1428
▁nie 1429
▁como 1430
▁supp 1431
σει 1432
▁rep 1433
ér 1434
▁4 1435
습니다 1436
ph 1437
ady 1438
ward 1439
ουν 1440
υρ 1441
ange 1442
ισ 1443
▁sub 1444
ular 1445
ps 1446
amento 1447
▁produ 1448
▁cap 1449
▁19 1450
▁거 1451
▁Est 1452
▁auf 1453
▁before 1454
▁자 1455
▁voor 1456
▁là 1457
▁mit 1458
▁fl 1459
idad 1460
▁Κ 1461
▁num 1462
▁gu 1463
its 1464
▁Qu 1465
vi 1466
▁mem 1467
ms 1468
▁def 1469
ます 1470
▁Com 1471
oy 1472
▁nat 1473
▁La 1474
ks 1475
ait 1476
urn 1477
▁pow 1478
rib 1479
▁wer 1480
ren 1481
▁mean 1482
ves 1483
▁Le 1484
▁mu 1485
▁ل 1486
▁다 1487
▁pla 1488
ux 1489
▁sim 1490
aj 1491
gu 1492
ene 1493
man 1494
ów 1495
als 1496
▁201 1497
ión 1498
▁As 1499
▁ça 1500
thing 1501
ال 1502
▁inc 1503
▁same 1504
ρά 1505
stem 1506
ute 1507
▁progr 1508
form 1509
én 1510
▁eff 1511
ões 1512
etz 1513
ission 1514
▁się 1515
▁important 1516
▁end 1517
▁cas 1518
▁수 1519
ται 1520
▁것 1521
▁ins 1522
▁They 1523
oth 1524
ών 1525
▁χ 1526
att 1527
▁gra 1528
▁nos 1529
▁τα 1530
▁보 1531
▁count 1532
ên 1533
τά 1534
▁ou 1535
▁Und 1536
▁There 1537
▁ng 1538
ys 1539
▁partic 1540
▁made 1541
▁cre 1542
ob 1543
men 1544
old 1545
▁find 1546
▁vi 1547
▁gi 1548
vor 1549
▁such 1550
up 1551
▁가 1552
▁still 1553
▁plus 1554
▁try 1555
self 1556
ings 1557
▁πολ 1558
▁sono 1559
leg 1560
urs 1561
ily 1562
▁sin 1563
ities 1564
λα 1565
▁여 1566
▁own 1567
ativ 1568
era 1569
으로 1570
▁ف 1571
▁επ 1572
▁add 1573
▁med 1574
▁ca 1575
ele 1576
▁ris 1577
▁leg 1578
▁va 1579
▁von 1580
ém 1581
ts 1582
▁mom 1583
mos 1584
▁resp 1585
ano 1586
▁sm 1587
▁years 1588
king 1589
▁że 1590
ional 1591
▁disc 1592
▁está 1593
▁three 1594
imes 1595
land 1596
ioni 1597
▁ع 1598
ero 1599
▁dar 1600
min 1601
▁Ye 1602
zo 1603
▁bit 1604
rit 1605
▁might 1606
ational 1607
enn 1608
ull 1609
▁zij 1610
ρε 1611
▁vot 1612
▁Il 1613
ather 1614
▁mi 1615
par 1616
▁If 1617
▁gener 1618
ιο 1619
▁conf 1620
▁dur 1621
▁show 1622
▁Es 1623
▁eine 1624
azione 1625
▁nu 1626
▁questo 1627
cc 1628
▁sie 1629
▁hat 1630
▁나 1631
▁cam 1632
zione 1633
▁tut 1634
elle 1635
ina 1636
ments 1637
▁too 1638
▁val 1639
▁hier 1640
iones 1641
ace 1642
▁έχ 1643
pres 1644
ata 1645
til 1646
ically 1647
▁ja 1648
▁되 1649
wer 1650
▁vers 1651
▁inform 1652
▁ότι 1653
▁ي 1654
▁für 1655
▁last 1656
ider 1657
した 1658
▁stud 1659
ros 1660
▁far 1661
φο 1662
▁doing 1663
λε 1664
nie 1665
▁incl 1666
▁contin 1667
▁Okay 1668
▁What 1669
▁form 1670
▁rem 1671
▁life 1672
▁question 1673
== 1674
endo 1675
▁fun 1676
▁dist 1677
▁Yeah 1678
▁τι 1679
λη 1680
atch 1681
▁Now 1682
▁world 1683
cz 1684
▁euh 1685
▁haben 1686
ific 1687
erg 1688
▁αν 1689
ative 1690
▁Thank 1691
ave 1692
▁지 1693
▁mas 1694
ures 1695
▁ci 1696
pre 1697
iter 1698
▁system 1699
▁mil 1700
▁ide 1701
▁pri 1702
μέ 1703
▁polit 1704
▁Je 1705
▁ave 1706
▁από 1707
▁nous 1708
▁pi 1709
して 1710
▁give 1711
▁feel 1712
▁help 1713
έπ 1714
▁sich 1715
▁hum 1716
▁cent 1717
▁exp 1718
▁conc 1719
ik 1720
▁Et 1721
▁word 1722
▁Is 1723
▁della 1724
▁fact 1725
▁kh 1726
▁sign 1727
▁why 1728
▁vol 1729
▁dei 1730
ways 1731
ores 1732
my 1733
ger 1734
mente 1735
wa 1736
에서 1737
cept 1738
▁ze 1739
ues 1740
▁play 1741
▁dos 1742
ention 1743
▁jest 1744
▁On 1745
abil 1746
ument 1747
▁ik 1748
ating 1749
▁dann 1750
... 1751
▁als 1752
렇게 1753
ution 1754
▁situ 1755
atter 1756
λά 1757
cht 1758
▁των 1759
vern 1760
▁ت 1761
alt 1762
▁στη 1763
▁ear 1764
▁program 1765
▁tell 1766
▁tu 1767
ui 1768
etzt 1769
▁second 1770
▁bien 1771
ان 1772
onna 1773
▁anche 1774
▁never 1775
▁another 1776
▁Ne 1777
sk 1778
arch 1779
▁ret 1780
▁exam 1781
ργ 1782
▁course 1783
▁este 1784
blic 1785
▁best 1786
▁Oh 1787
ità 1788
▁present 1789
▁pot 1790
▁alle 1791
▁10 1792
▁around 1793
ween 1794
▁europe 1795
zen 1796
▁Pro 1797
▁Pr 1798
gg 1799
▁place 1800
▁β 1801
στ 1802
ura 1803
▁sure 1804
▁" 1805
▁sem 1806
▁yeah 1807
stand 1808
▁Ar 1809
▁Α 1810
▁한 1811
▁σε 1812
▁bec 1813
▁dies 1814
ric 1815
ock 1816
body 1817
vol 1818
▁mal 1819
▁Das 1820
▁rest 1821
ub 1822
ès 1823
ited 1824
▁Π 1825
▁6 1826
▁between 1827
▁high 1828
ação 1829
ness 1830
▁fam 1831
▁niet 1832
▁commun 1833
▁ré 1834
▁serv 1835
igen 1836
▁open 1837
▁next 1838
ism 1839
▁porque 1840
conom 1841
▁sl 1842
ρί 1843
ku 1844
▁해 1845
ense 1846
ount 1847
ja 1848
ông 1849
iment 1850
▁gonna 1851
▁dep 1852
ane 1853
▁thought 1854
▁aqui 1855
▁prov 1856
▁An 1857
▁uns 1858
▁enc 1859
▁organ 1860
έπει 1861
▁más 1862
▁Ab 1863
ret 1864
▁always 1865
▁sobre 1866
いう 1867
▁Don 1868
▁ref 1869
ję 1870
▁noch 1871
ções 1872
ori 1873
ende 1874
▁tout 1875
▁used 1876
iem 1877
▁κά 1878
▁Uh 1879
▁fait 1880
▁ask 1881
▁exper 1882
▁bro 1883
▁dr 1884
cias 1885
▁때 1886
νε 1887
▁contro 1888
▁wel 1889
omen 1890
velop 1891
▁equ 1892
sch 1893
eng 1894
▁¿ 1895
▁qual 1896
ried 1897
▁cur 1898
▁big 1899
▁mer 1900
ek 1901
▁pop 1902
▁done 1903
oup 1904
▁vis 1905
▁found 1906
ibil 1907
ember 1908
▁mis 1909
biamo 1910
iew 1911
▁interest 1912
anz 1913
aut 1914
▁must 1915
▁old 1916
ouse 1917
ρχ 1918
ita 1919
▁zijn 1920
hip 1921
▁able 1922
hen 1923
▁wy 1924
▁vor 1925
▁giv 1926
mi 1927
▁year 1928
ste 1929
▁Pres 1930
ida 1931
ρό 1932
ée 1933
▁υπ 1934
θε 1935
▁char 1936
▁comple 1937
▁sort 1938
▁guy 1939
▁x 1940
▁cá 1941
▁prin 1942
▁δεν 1943
led 1944
ics 1945
▁sind 1946
▁πα 1947
▁bus 1948
μο 1949
▁To 1950
▁aus 1951
aar 1952
ön 1953
▁lar 1954
▁Ich 1955
▁came 1956
ette 1957
▁wr 1958
▁const 1959
ert 1960
▁ook 1961
ji 1962
▁wie 1963
tern 1964
els 1965
ural 1966
raw 1967
▁cle 1968
▁tro 1969
ets 1970
▁Fr 1971
gun 1972
▁Σ 1973
ude 1974
ís 1975
▁certain 1976
▁Sch 1977
ollow 1978
يه 1979
ably 1980
▁dan 1981
▁200 1982
by 1983
نا 1984
▁pun 1985
esso 1986
▁om 1987
χα 1988
ono 1989
▁process 1990
ère 1991
った 1992
▁뭐 1993
ima 1994
▁happen 1995
bém 1996
▁number 1997
▁ir 1998
▁art 1999
ocê 2000
▁δια 2001
▁heb 2002
▁jetzt 2003
▁belie 2004
tó 2005
▁sou 2006
zer 2007
▁7 2008
▁prof 2009
▁제 2010
▁sent 2011
▁stand 2012
▁intern 2013
▁cos 2014
▁parte 2015
▁better 2016
▁sal 2017
▁grand 2018
▁four 2019
über 2020
ras 2021
▁develop 2022
▁list 2023
▁deb 2024
▁govern 2025
ana 2026
iness 2027
▁sk 2028
▁vide 2029
ats 2030
▁each 2031
▁data 2032
ital 2033
▁bre 2034
▁love 2035
▁ple 2036
▁이렇게 2037
erd 2038
▁mor 2039
▁ans 2040
▁αυτό 2041
▁called 2042
ité 2043
▁ext 2044
ruct 2045
▁upon 2046
ani 2047
▁both 2048
▁while 2049
▁run 2050
iamo 2051
bal 2052
▁appro 2053
vent 2054
ché 2055
ación 2056
▁== 2057
une 2058
▁Parl 2059
▁keep 2060
bo 2061
▁wo 2062
ize 2063
▁eng 2064
ants 2065
▁στο 2066
▁Gra 2067
ices 2068
▁πε 2069
idente 2070
▁cho 2071
는데 2072
▁któ 2073
▁prob 2074
rio 2075
▁okay 2076
▁이제 2077
σουμε 2078
▁opp 2079
▁werden 2080
▁esta 2081
υρω 2082
ister 2083
▁também 2084
▁πρέπει 2085
▁invest 2086
ungen 2087
▁Die 2088
▁gl 2089
▁problem 2090
oun 2091
▁delle 2092
▁aber 2093
▁head 2094
▁follow 2095
▁didn 2096
ede 2097
any 2098
▁8 2099
▁내 2100
ever 2101
▁away 2102
▁θέ 2103
▁tech 2104
▁정 2105
▁Ver 2106
hor 2107
▁direct 2108
▁대 2109
οι 2110
▁hay 2111
▁안 2112
▁propos 2113
▁today 2114
bién 2115
▁μα 2116
uff 2117
ươ 2118
lement 2119
▁went 2120
hn 2121
▁avec 2122
ron 2123
▁lear 2124
から 2125
ined 2126
ige 2127
▁moment 2128
riend 2129
τή 2130
▁finan 2131
cie 2132
▁Eu 2133
▁στην 2134
▁entre 2135
▁aff 2136
▁dev 2137
▁beg 2138
ool 2139
▁For 2140
anie 2141
ior 2142
▁consider 2143
ently 2144
ering 2145
fic 2146
ines 2147
oi 2148
▁care 2149
rat 2150
ages 2151
wor 2152
▁support 2153
▁같 2154
▁Con 2155
esch 2156
press 2157
gli 2158
lt 2159
▁và 2160
▁prote 2161
ική 2162
▁looking 2163
vis 2164
άλ 2165
니까 2166
▁econom 2167
▁Ent 2168
▁name 2169
▁understand 2170
▁dit 2171
▁How 2172
▁against 2173
ię 2174
▁read 2175
▁seem 2176
▁ot 2177
▁Well 2178
▁vari 2179
ious 2180
cul 2181
eten 2182
▁human 2183
ello 2184
▁mus 2185
eren 2186
▁without 2187
▁All 2188
▁mark 2189
υρωπα 2190
▁9 2191
▁child 2192
ready 2193
gether 2194
▁fut 2195
ない 2196
ασ 2197
▁land 2198
anno 2199
ario 2200
▁turn 2201
▁fund 2202
elt 2203
▁prze 2204
▁iss 2205
▁power 2206
ason 2207
000 2208
νω 2209
▁memb 2210
▁state 2211
▁loc 2212
▁El 2213
elij 2214
iene 2215
omis 2216
ania 2217
oud 2218
▁có 2219
▁ste 2220
▁ك 2221
▁ه 2222
▁muito 2223
▁od 2224
▁already 2225
ress 2226
▁fal 2227
▁example 2228
▁aan 2229
▁whole 2230
▁European 2231
▁cond 2232
▁mind 2233
▁public 2234
▁á 2235
▁저 2236
▁그래 2237
oney 2238
▁port 2239
▁pay 2240
ott 2241
▁few 2242
▁기 2243
imo 2244
ϊκ 2245
ści 2246
ille 2247
ela 2248
▁hard 2249
▁시 2250
▁오 2251
sten 2252
ivers 2253
▁favor 2254
idade 2255
ized 2256
▁hab 2257
▁mag 2258
▁importante 2259
ali 2260
▁God 2261
indi 2262
▁É 2263
▁move 2264
▁having 2265
▁necess 2266
ột 2267
▁più 2268
▁Por 2269
▁pero 2270
ον 2271
▁Τ 2272
ła 2273
▁side 2274
▁Go 2275
▁οι 2276
υρωπαϊκ 2277
▁thank 2278
lic 2279
ít 2280
▁우 2281
▁oh 2282
▁beh 2283
▁Mar 2284
▁pret 2285
▁soci 2286
▁small 2287
▁jo 2288
ρη 2289
▁también 2290
sel 2291
ils 2292
aw 2293
▁together 2294
ode 2295
ique 2296
▁Sie 2297
▁dest 2298
ird 2299
▁particular 2300
rag 2301
▁lead 2302
こと 2303
ished 2304
▁mes 2305
▁build 2306
▁Me 2307
té 2308
▁một 2309
▁fu 2310
▁top 2311
air 2312
ief 2313
ortun 2314
▁speci 2315
▁case 2316
ared 2317
aten 2318
▁change 2319
▁απο 2320
pos 2321
ματα 2322
▁requ 2323
▁once 2324
ęd 2325
orn 2326
▁tot 2327
ischen 2328
▁contra 2329
erv 2330
▁water 2331
▁maybe 2332
▁hal 2333
▁social 2334
▁λ 2335
ral 2336
▁friend 2337
▁left 2338
ries 2339
▁result 2340
▁hist 2341
▁ey 2342
σα 2343
être 2344
▁viel 2345
▁though 2346
▁fre 2347
▁eas 2348
▁você 2349
▁über 2350
▁przy 2351
▁colle 2352
ateg 2353
▁sont 2354
present 2355
▁من 2356
라고 2357
▁Let 2358
▁means 2359
▁princi 2360
eld 2361
▁level 2362
iver 2363
▁guys 2364
uf 2365
έρ 2366
▁ان 2367
zą 2368
ingen 2369
▁mol 2370
ours 2371
▁test 2372
▁minut 2373
jor 2374
▁fac 2375
ân 2376
ety 2377
cri 2378
cha 2379
▁Donc 2380
▁creat 2381
ós 2382
ino 2383
▁speak 2384
▁jak 2385
iti 2386
▁order 2387
anc 2388
▁money 2389
▁cal 2390
▁everything 2391
▁bard 2392
▁Mr 2393
▁ή 2394
▁bi 2395
alth 2396
▁kann 2397
ctor 2398
▁μπο 2399
ją 2400
▁quite 2401
▁없 2402
▁occ 2403
▁Wir 2404
ques 2405
▁super 2406
▁suc 2407
▁book 2408
ili 2409
▁mill 2410
له 2411
ami 2412
▁exc 2413
▁norm 2414
▁light 2415
▁bar 2416
▁gar 2417
▁anything 2418
▁kön 2419
ườ 2420
▁ed 2421
▁talking 2422
▁في 2423
▁home 2424
▁main 2425
▁coming 2426
▁bra 2427
▁있는 2428
▁pet 2429
▁probably 2430
ield 2431
▁Sp 2432
τική 2433
▁Er 2434
▁law 2435
▁continu 2436
▁wird 2437
▁dro 2438
▁discuss 2439
▁wenn 2440
▁defin 2441
▁mr 2442
ました 2443
▁oper 2444
▁effect 2445
ender 2446
▁일 2447
▁video 2448
duc 2449
▁fil 2450
ix 2451
▁energ 2452
▁faire 2453
pro 2454
▁주 2455
▁ws 2456
ommen 2457
▁الم 2458
▁working 2459
▁sus 2460
▁neg 2461
ين 2462
▁Do 2463
▁seg 2464
▁dom 2465
▁trying 2466
▁plan 2467
ett 2468
urch 2469
rig 2470
▁Και 2471
들이 2472
んです 2473
▁using 2474
ême 2475
▁말 2476
▁ant 2477
▁sul 2478
σε 2479
▁era 2480
▁saying 2481
▁πολύ 2482
▁less 2483
less 2484
▁idea 2485
ike 2486
▁ah 2487
ga 2488
▁nam 2489
어요 2490
▁tou 2491
owa 2492
▁seen 2493
entes 2494
▁house 2495
▁questions 2496
aria 2497
▁todos 2498
▁abs 2499
▁country 2500
▁isso 2501
▁getting 2502
ka 2503
ience 2504
▁pal 2505
▁doesn 2506
▁lang 2507
لا 2508
▁project 2509
▁Δ 2510
▁miss 2511
▁chang 2512
▁señ 2513
▁Tr 2514
▁inde 2515
iten 2516
ists 2517
▁gro 2518
▁espe 2519
▁business 2520
▁five 2521
▁cette 2522
▁Her 2523
▁Europa 2524
20 2525
agen 2526
▁lim 2527
▁techn 2528
▁questa 2529
▁information 2530
ria 2531
▁class 2532
▁Te 2533
γκ 2534
ters 2535
ither 2536
▁todo 2537
▁sein 2538
ately 2539
▁전 2540
▁yet 2541
cho 2542
▁Europ 2543
port 2544
ether 2545
wi 2546
ko 2547
▁nothing 2548
▁gli 2549
▁within 2550
▁door 2551
▁tre 2552
vious 2553
ella 2554
하고 2555
υχα 2556
▁yo 2557
▁hope 2558
▁생 2559
ush 2560
います 2561
▁times 2562
▁face 2563
▁enough 2564
▁nas 2565
äh 2566
▁여기 2567
cle 2568
uen 2569
という 2570
orte 2571
ator 2572
▁vra 2573
▁gente 2574
▁Or 2575
ych 2576
▁dig 2577
ema 2578
▁perché 2579
▁mot 2580
wh 2581
▁Commission 2582
ira 2583
▁επι 2584
▁uhm 2585
υχαρι 2586
▁마 2587
▁ao 2588
▁comme 2589
▁Έ 2590
▁clear 2591
▁الا 2592
▁perm 2593
σω 2594
▁hear 2595
▁dir 2596
▁report 2597
▁oder 2598
▁decis 2599
med 2600
▁Also 2601
▁sing 2602
▁chi 2603
ische 2604
στε 2605
▁stuff 2606
▁low 2607
▁compr 2608
ότη 2609
▁bardzo 2610
ete 2611
▁hebben 2612
▁essere 2613
ios 2614
▁Af 2615
onder 2616
▁Commiss 2617
reen 2618
zu 2619
▁país 2620
ology 2621
▁saw 2622
▁Ευρωπαϊκ 2623
▁μια 2624
▁cost 2625
cio 2626
czy 2627
▁sab 2628
▁18 2629
▁young 2630
▁15 2631
▁dam 2632
▁pretty 2633
▁εί 2634
ba 2635
ات 2636
▁그래서 2637
rij 2638
cil 2639
λογ 2640
cted 2641
νη 2642
▁muy 2643
▁rapp 2644
▁αλ 2645
▁includ 2646
▁school 2647
▁bene 2648
▁Ja 2649
ton 2650
▁diffic 2651
▁util 2652
▁allow 2653
▁product 2654
cis 2655
▁ya 2656
adas 2657
jet 2658
esse 2659
▁believe 2660
ired 2661
▁tri 2662
▁donc 2663
▁alt 2664
▁Ge 2665
▁Parlamento 2666
▁ont 2667
ides 2668
▁부 2669
▁conse 2670
▁ένα 2671
άρχ 2672
▁ti 2673
ash 2674
▁우리 2675
▁took 2676
▁government 2677
▁says 2678
ted 2679
oman 2680
▁많 2681
▁respons 2682
▁answer 2683
▁god 2684
▁line 2685
▁watch 2686
▁Ind 2687
▁πρό 2688
▁Pa 2689
▁vai 2690
ivo 2691
osed 2692
ining 2693
▁bring 2694
▁meet 2695
▁EU 2696
▁Because 2697
▁좀 2698
most 2699
ased 2700
▁pap 2701
iva 2702
입니다 2703
ss 2704
▁during 2705
ista 2706
ượ 2707
▁making 2708
▁game 2709
▁Per 2710
jo 2711
εδ 2712
▁adv 2713
ote 2714
▁Sh 2715
▁ga 2716
▁sw 2717
ara 2718
▁comes 2719
ini 2720
▁rece 2721
▁συμ 2722
▁sen 2723
▁prom 2724
▁μέ 2725
ym 2726
elijk 2727
▁since 2728
▁모 2729
▁organiz 2730
▁Fra 2731
▁tá 2732
▁그러 2733
kes 2734
inal 2735
ler 2736
리고 2737
eden 2738
▁red 2739
▁cir 2740
▁post 2741
▁pou 2742
τί 2743
▁nel 2744
bra 2745
▁bes 2746
▁δι 2747
▁Chr 2748
▁himself 2749
하는 2750
εται 2751
zię 2752
ło 2753
cze 2754
▁바 2755
▁night 2756
▁않 2757
selves 2758
▁tw 2759
isch 2760
lij 2761
▁exist 2762
uto 2763
▁At 2764
wards 2765
▁general 2766
ät 2767
zia 2768
▁possible 2769
▁matter 2770
▁incre 2771
▁prim 2772
▁sehr 2773
empl 2774
▁peu 2775
▁fat 2776
▁ges 2777
▁αυτή 2778
▁pens 2779
▁expl 2780
▁Europea 2781
υχαριστ 2782
▁εκ 2783
ream 2784
▁pon 2785
ided 2786
ibt 2787
▁만 2788
▁half 2789
ole 2790
ussi 2791
▁zo 2792
▁nach 2793
▁sta 2794
さん 2795
▁trad 2796
ury 2797
▁fond 2798
bs 2799
▁peut 2800
▁cult 2801
▁nor 2802
ungs 2803
▁control 2804
▁même 2805
▁τον 2806
▁room 2807
▁Μ 2808
▁περι 2809
▁later 2810
▁deve 2811
τρο 2812
▁wanted 2813
itions 2814
▁sci 2815
σι 2816
not 2817
ki 2818
▁fig 2819
▁nur 2820
ới 2821
▁bei 2822
▁else 2823
▁très 2824
iden 2825
uc 2826
▁kon 2827
▁rela 2828
▁obs 2829
▁사람 2830
▁dou 2831
▁예 2832
▁mir 2833
▁za 2834
▁지금 2835
▁einen 2836
▁air 2837
▁12 2838
▁né 2839
▁Επ 2840
▁grow 2841
▁diese 2842
ρού 2843
esto 2844
▁そ 2845
unt 2846
▁상 2847
▁priv 2848
▁Não 2849
▁reason 2850
▁bon 2851
át 2852
▁stat 2853
ươi 2854
▁ger 2855
ling 2856
μό 2857
▁esc 2858
▁month 2859
해서 2860
▁Ah 2861
▁When 2862
pped 2863
ule 2864
▁εν 2865
▁Amer 2866
▁until 2867
▁Ag 2868
▁pen 2869
ńst 2870
ail 2871
▁week 2872
▁whether 2873
▁그런 2874
▁mươi 2875
▁appe 2876
▁She 2877
▁Mu 2878
acc 2879
iệ 2880
▁alla 2881
▁ben 2882
▁My 2883
▁refer 2884
▁σα 2885
▁heart 2886
▁οπο 2887
▁sat 2888
▁こ 2889
▁often 2890
▁six 2891
▁Ad 2892
λοι 2893
▁عل 2894
thers 2895
▁Like 2896
λή 2897
▁final 2898
ما 2899
▁learn 2900
vir 2901
aba 2902
ient 2903
ards 2904
▁near 2905
▁ση 2906
bar 2907
▁days 2908
▁ανα 2909
app 2910
ption 2911
▁polít 2912
ại 2913
yn 2914
▁또 2915
▁least 2916
amp 2917
eder 2918
imento 2919
▁들 2920
را 2921
▁ihr 2922
▁begin 2923
esearch 2924
▁fav 2925
ump 2926
▁free 2927
▁daar 2928
▁mult 2929
▁view 2930
▁sel 2931
▁좋 2932
▁Presidente 2933
▁já 2934
fect 2935
▁success 2936
mar 2937
▁started 2938
▁Ex 2939
ature 2940
▁pract 2941
Un 2942
▁schon 2943
▁sea 2944
▁live 2945
elo 2946
tait 2947
▁ale 2948
▁ح 2949
iert 2950
▁quanto 2951
ها 2952
▁yes 2953
▁nost 2954
ales 2955
▁object 2956
▁củ 2957
▁mater 2958
▁bad 2959
0. 2960
εια 2961
▁wat 2962
▁design 2963
▁Um 2964
▁Commissione 2965
atever 2966
▁remember 2967
ivid 2968
▁group 2969
▁φ 2970
ered 2971
▁contr 2972
emy 2973
por 2974
▁respect 2975
ét 2976
▁shall 2977
▁요 2978
▁các 2979
▁activ 2980
▁quick 2981
ίε 2982
▁cz 2983
▁아니 2984
▁vez 2985
jsk 2986
▁bis 2987
▁của 2988
▁full 2989
υχαριστώ 2990
ross 2991
uck 2992
enti 2993
▁quindi 2994
▁이런 2995
▁uit 2996
▁market 2997
▁vamos 2998
▁ni 2999
▁area 3000
▁polic 3001
▁hor 3002
▁aussi 3003
▁heard 3004
idd 3005
▁kne 3006
▁legis 3007
0, 3008
▁arri 3009
for 3010
▁represent 3011
eg 3012
▁access 3013
of 3014
itar 3015
▁συν 3016
▁bed 3017
ison 3018
▁fur 3019
▁hon 3020
▁terms 3021
▁ven 3022
▁given 3023
▁Lo 3024
ρή 3025
▁worden 3026
mal 3027
▁base 3028
ły 3029
▁ن 3030
▁προσ 3031
▁doc 3032
▁여러 3033
zięku 3034
άν 3035
▁glo 3036
▁One 3037
ges 3038
nych 3039
▁large 3040
bor 3041
▁vou 3042
line 3043
▁almost 3044
▁anal 3045
λέ 3046
▁fall 3047
▁zum 3048
aps 3049
ances 3050
▁ق 3051
chte 3052
▁hij 3053
▁job 3054
ziękuję 3055
amy 3056
▁eyes 3057
▁abbiamo 3058
▁due 3059
iro 3060
▁indust 3061
ulation 3062
αν 3063
▁Em 3064
▁har 3065
▁told 3066
▁strong 3067
änd 3068
▁sil 3069
する 3070
▁nom 3071
νομ 3072
▁게 3073
▁orig 3074
esta 3075
idades 3076
▁conne 3077
▁mention 3078
▁Γ 3079
아요 3080
▁Jo 3081
▁ident 3082
▁health 3083
▁Christ 3084
▁verd 3085
▁Ο 3086
▁Dank 3087
igu 3088
aro 3089
▁Can 3090
▁women 3091
imos 3092
▁εξ 3093
▁중 3094
▁Uhm 3095
▁zw 3096
ίζ 3097
▁asked 3098
▁Mas 3099
▁trou 3100
▁body 3101
iste 3102
▁pan 3103
udo 3104
▁walk 3105
▁comun 3106
▁step 3107
▁parce 3108
▁sto 3109
ola 3110
▁posit 3111
▁contrib 3112
▁aw 3113
▁team 3114
iod 3115
ones 3116
▁Mais 3117
▁whatever 3118
▁Θ 3119
▁along 3120
▁하나 3121
▁dri 3122
da 3123
▁Just 3124
وا 3125
▁ú 3126
ến 3127
ăm 3128
▁comb 3129
▁countries 3130
iche 3131
▁foi 3132
▁gibt 3133
irl 3134
ρέ 3135
▁quel 3136
ordo 3137
▁wait 3138
▁조 3139
▁mess 3140
▁New 3141
śmy 3142
▁더 3143
▁Ευρωπαϊκή 3144
enden 3145
ellen 3146
▁pare 3147
inter 3148
▁prz 3149
▁concl 3150
▁community 3151
▁können 3152
▁hold 3153
nic 3154
gar 3155
▁pur 3156
▁lie 3157
▁foc 3158
ctions 3159
▁dal 3160
▁known 3161
rent 3162
▁words 3163
▁그리고 3164
zyst 3165
▁ces 3166
▁deal 3167
ψη 3168
▁teach 3169
▁forma 3170
▁press 3171
▁molto 3172
ror 3173
▁분 3174
▁maar 3175
▁υπάρχ 3176
▁princip 3177
▁gest 3178
▁Uni 3179
▁short 3180
ύρι 3181
▁cla 3182
iej 3183
ube 3184
ência 3185
ình 3186
▁Si 3187
▁Min 3188
olo 3189
ending 3190
▁become 3191
ταν 3192
val 3193
▁research 3194
▁mig 3195
zioni 3196
▁Ma 3197
▁έχουμε 3198
lu 3199
▁hu 3200
▁proper 3201
▁exact 3202
ieren 3203
▁family 3204
▁Am 3205
ées 3206
▁sens 3207
▁będ 3208
▁city 3209
▁Pl 3210
▁past 3211
▁ann 3212
▁obrig 3213
▁Gr 3214
▁sor 3215
reg 3216
ilt 3217
▁simple 3218
▁wind 3219
ids 3220
ieder 3221
aciones 3222
▁bij 3223
▁mü 3224
▁αλλά 3225
▁δη 3226
pet 3227
▁س 3228
ying 3229
▁merc 3230
▁soon 3231
▁κατά 3232
▁individ 3233
▁suff 3234
ون 3235
rew 3236
ất 3237
▁check 3238
▁hai 3239
▁major 3240
ava 3241
ples 3242
▁across 3243
▁looked 3244
▁tym 3245
itos 3246
cu 3247
▁true 3248
lish 3249
▁mehr 3250
rei 3251
▁ai 3252
▁경 3253
ony 3254
▁future 3255
▁esto 3256
put 3257
▁others 3258
▁sist 3259
▁mö 3260
used 3261
▁difficult 3262
ść 3263
▁states 3264
▁nuest 3265
いる 3266
▁há 3267
▁tiene 3268
▁czy 3269
▁taken 3270
▁Estados 3271
▁sense 3272
▁space 3273
▁period 3274
cially 3275
▁expect 3276
str 3277
▁liber 3278
▁rather 3279
▁children 3280
▁Ik 3281
▁fazer 3282
▁Car 3283
▁jour 3284
▁plac 3285
▁situation 3286
▁cannot 3287
work 3288
▁ach 3289
▁either 3290
τού 3291
τικό 3292
▁sometimes 3293
fully 3294
▁aí 3295
ames 3296
▁11 3297
▁europ 3298
▁sever 3299
rodu 3300
▁ust 3301
▁tip 3302
▁30 3303
▁reach 3304
▁quando 3305
πε 3306
rou 3307
▁Of 3308
▁soll 3309
olut 3310
▁regard 3311
bros 3312
▁Yes 3313
▁common 3314
gest 3315
view 3316
▁rema 3317
▁won 3318
▁viol 3319
viron 3320
▁cro 3321
▁Muito 3322
▁front 3323
▁ju 3324
isión 3325
▁bur 3326
ώρα 3327
▁são 3328
ove 3329
▁ngh 3330
▁mij 3331
▁type 3332
let 3333
idos 3334
af 3335
▁sua 3336
very 3337
▁κατα 3338
side 3339
▁Comiss 3340
▁link 3341
▁break 3342
▁Dat 3343
cent 3344
▁habe 3345
▁proced 3346
▁concern 3347
▁poder 3348
undo 3349
▁opportun 3350
ικά 3351
▁anim 3352
▁Union 3353
itte 3354
▁energy 3355
▁basically 3356
▁인 3357
iß 3358
▁forward 3359
com 3360
ican 3361
▁Ger 3362
▁langu 3363
▁consum 3364
▁ens 3365
▁comment 3366
▁nós 3367
hal 3368
▁위 3369
▁deux 3370
τικά 3371
itut 3372
▁moeten 3373
▁among 3374
▁typ 3375
rar 3376
지고 3377
▁return 3378
▁Que 3379
▁bud 3380
▁taking 3381
▁Dziękuję 3382
ück 3383
ended 3384
▁100 3385
▁fra 3386
▁pie 3387
come 3388
▁être 3389
▁Non 3390
κε 3391
head 3392
▁segu 3393
unch 3394
▁lavor 3395
γο 3396
izz 3397
icas 3398
ugh 3399
▁äh 3400
▁które 3401
▁national 3402
▁Sr 3403
βα 3404
imm 3405
▁father 3406
▁record 3407
▁strateg 3408
▁Reg 3409
ποι 3410
▁inte 3411
▁myself 3412
▁corre 3413
▁vir 3414
▁goes 3415
ences 3416
▁manag 3417
▁parl 3418
μά 3419
idas 3420
χέ 3421
aring 3422
ination 3423
ised 3424
θεί 3425
vre 3426
ability 3427
▁coop 3428
ength 3429
▁ganz 3430
▁thinking 3431
▁hacer 3432
라는 3433
ικό 3434
ày 3435
▁story 3436
▁są 3437
▁black 3438
▁buen 3439
▁These 3440
▁roz 3441
▁account 3442
▁eso 3443
rie 3444
ilar 3445
eft 3446
▁educ 3447
πόν 3448
▁sett 3449
▁mich 3450
▁ró 3451
▁spir 3452
▁여러분 3453
ived 3454
▁cover 3455
án 3456
▁quand 3457
ration 3458
owe 3459
eli 3460
▁net 3461
▁Η 3462
▁girl 3463
▁sound 3464
▁Cons 3465
▁works 3466
πή 3467
▁tom 3468
▁States 3469
ير 3470
ured 3471
합니다 3472
▁다음 3473
▁rele 3474
imi 3475
acter 3476
▁hands 3477
ows 3478
▁hom 3479
▁Not 3480
▁faut 3481
ends 3482
▁interesting 3483
▁makes 3484
▁cab 3485
gi 3486
▁unter 3487
▁zur 3488
▁quer 3489
▁May 3490
▁det 3491
ço 3492
odzi 3493
êm 3494
ona 3495
liament 3496
▁students 3497
▁ih 3498
ahr 3499
▁aquí 3500
enda 3501
ogn 3502
▁flo 3503
onte 3504
지만 3505
▁experience 3506
▁wa 3507
▁knew 3508
▁Aber 3509
▁Dan 3510
▁field 3511
▁nice 3512
▁muss 3513
▁member 3514
▁? 3515
▁있습니다 3516
▁early 3517
ρω 3518
▁single 3519
ilà 3520
▁έχει 3521
▁food 3522
▁잘 3523
▁hy 3524
▁cris 3525
éd 3526
▁avo 3527
▁event 3528
▁kill 3529
▁وال 3530
▁σημα 3531
▁close 3532
▁sum 3533
▁ang 3534
▁señor 3535
▁please 3536
ots 3537
▁leave 3538
viously 3539
いて 3540
▁particip 3541
▁minutes 3542
▁algun 3543
▁morning 3544
▁based 3545
▁king 3546
esi 3547
▁dra 3548
▁punto 3549
▁trabal 3550
▁meas 3551
osp 3552
▁elect 3553
▁nog 3554
▁poi 3555
▁white 3556
omp 3557
▁Grazie 3558
▁생각 3559
▁impact 3560
ources 3561
▁tego 3562
▁deter 3563
ites 3564
▁create 3565
σία 3566
▁local 3567
يا 3568
▁itself 3569
▁instr 3570
▁position 3571
ichtig 3572
inh 3573
itten 3574
▁beaut 3575
하게 3576
▁demand 3577
αλ 3578
▁alg 3579
ذا 3580
ploy 3581
▁공 3582
▁stra 3583
orma 3584
ότητα 3585
▁Pol 3586
,000 3587
ười 3588
▁compet 3589
right 3590
▁fine 3591
▁했 3592
isto 3593
ör 3594
にな 3595
▁lui 3596
▁países 3597
bbe 3598
▁invol 3599
▁prior 3600
▁wieder 3601
▁pain 3602
▁mass 3603
▁sam 3604
▁yourself 3605
까지 3606
다고 3607
ować 3608
haps 3609
▁cool 3610
いた 3611
itch 3612
πτ 3613
ories 3614
▁제가 3615
▁stop 3616
▁할 3617
▁element 3618
▁진 3619
▁value 3620
▁several 3621
▁couple 3622
▁relat 3623
ife 3624
▁United 3625
▁especially 3626
▁trat 3627
▁Cl 3628
oco 3629
▁gem 3630
upp 3631
▁term 3632
▁얘 3633
ρώ 3634
▁qué 3635
▁nature 3636
▁lay 3637
ster 3638
where 3639
▁cut 3640
▁mother 3641
っと 3642
▁death 3643
▁themselves 3644
▁tutti 3645
▁πολι 3646
ούμε 3647
raph 3648
ελ 3649
ssen 3650
este 3651
yt 3652
ession 3653
▁woman 3654
eter 3655
▁Eng 3656
▁needs 3657
▁share 3658
▁구 3659
▁arm 3660
ades 3661
▁λοι 3662
idence 3663
amb 3664
▁issue 3665
▁desc 3666
▁번 3667
▁16 3668
▁Mer 3669
▁company 3670
▁elle 3671
▁kun 3672
▁immer 3673
ều 3674
emplo 3675
▁στι 3676
ark 3677
▁aud 3678
▁temos 3679
heid 3680
endre 3681
▁gave 3682
▁Cont 3683
▁environ 3684
▁rad 3685
▁lu 3686
▁tal 3687
▁só 3688
▁무 3689
minist 3690
▁cust 3691
▁guess 3692
▁text 3693
▁Da 3694
▁cra 3695
▁επί 3696
▁때문 3697
▁pat 3698
▁Then 3699
▁Right 3700
▁lá 3701
▁Br 3702
▁añ 3703
▁looks 3704
ives 3705
ết 3706
ume 3707
▁div 3708
▁fort 3709
baj 3710
anti 3711
▁tenemos 3712
ization 3713
▁ago 3714
▁Des 3715
▁imag 3716
▁Alors 3717
auc 3718
▁Man 3719
▁λοιπόν 3720
ürlich 3721
▁stay 3722
▁service 3723
다는 3724
▁đã 3725
oro 3726
δο 3727
▁civ 3728
▁trong 3729
μη 3730
▁became 3731
▁Het 3732
itter 3733
▁세 3734
fin 3735
▁benef 3736
▁hund 3737
▁người 3738
outh 3739
▁approach 3740
▁natural 3741
ρία 3742
▁relations 3743
▁listen 3744
antes 3745
▁Comissão 3746
cher 3747
ged 3748
▁opin 3749
▁개 3750
▁고 3751
lex 3752
▁conv 3753
▁Gracias 3754
▁uno 3755
▁colleg 3756
▁mat 3757
▁gut 3758
▁근 3759
▁müssen 3760
▁caso 3761
ements 3762
ald 3763
▁Επι 3764
▁이거 3765
▁Θα 3766
▁relig 3767
▁individual 3768
▁political 3769
▁fore 3770
▁extra 3771
west 3772
▁everybody 3773
▁dim 3774
면서 3775
▁$ 3776
▁παρα 3777
▁precis 3778
▁công 3779
▁behind 3780
▁Ευχαριστώ 3781
▁bin 3782
▁author 3783
▁someone 3784
▁struct 3785
この 3786
▁friends 3787
▁clim 3788
겠습니다 3789
▁gew 3790
▁mond 3791
▁key 3792
ある 3793
φορά 3794
▁estab 3795
ker 3796
▁ba 3797
▁problema 3798
▁redu 3799
▁phys 3800
anda 3801
▁κύρι 3802
▁impro 3803
▁further 3804
▁bank 3805
▁ways 3806
iversity 3807
τροπή 3808
ador 3809
▁소 3810
▁everyone 3811
abor 3812
soci 3813
▁Port 3814
▁Some 3815
lichen 3816
예요 3817
▁sé 3818
▁υπο 3819
▁들어 3820
ama 3821
▁applic 3822
▁coll 3823
pow 3824
ρεί 3825
▁legisl 3826
▁commiss 3827
▁wur 3828
▁third 3829
▁democ 3830
▁agre 3831
▁ground 3832
▁blo 3833
▁members 3834
▁vu 3835
pend 3836
▁하는 3837
lied 3838
▁estamos 3839
▁durch 3840
よう 3841
▁development 3842
▁solo 3843
▁fare 3844
▁resol 3845
▁17 3846
▁noss 3847
ème 3848
▁été 3849
▁crit 3850
ược 3851
itor 3852
▁tool 3853
acht 3854
▁không 3855
▁ru 3856
iera 3857
▁pues 3858
▁ur 3859
▁pick 3860
▁express 3861
▁perfect 3862
gt 3863
▁알 3864
▁계 3865
▁pesso 3866
▁issues 3867
ار 3868
ye 3869
▁usted 3870
▁heeft 3871
▁비 3872
▁đi 3873
▁너 3874
▁grande 3875
▁tur 3876
▁brought 3877
▁accord 3878
▁Pe 3879
▁amb 3880
icos 3881
▁aux 3882
hl 3883
▁model 3884
εκ 3885
0% 3886
Unione 3887
bers 3888
▁convers 3889
▁άλ 3890
fach 3891
▁million 3892
▁Ber 3893
▁영 3894
▁Was 3895
νωση 3896
ول 3897
▁Col 3898
esus 3899
▁Ze 3900
▁noi 3901
▁ش 3902
▁Herr 3903
▁pode 3904
▁cit 3905
osa 3906
▁bem 3907
▁ακ 3908
voir 3909
ential 3910
iguard 3911
ibility 3912
▁puis 3913
pping 3914
▁건 3915
▁treat 3916
▁13 3917
ified 3918
onces 3919
ίο 3920
▁avail 3921
▁κοι 3922
uring 3923
▁began 3924
ούν 3925
ín 3926
▁squ 3927
▁Então 3928
▁material 3929
▁spra 3930
ξη 3931
▁fire 3932
▁trabaj 3933
ec 3934
▁riguard 3935
▁hundred 3936
▁kunnen 3937
れて 3938
▁cosa 3939
ismo 3940
▁μπορού 3941
▁sle 3942
▁however 3943
▁han 3944
tt 3945
▁στ 3946
igo 3947
▁14 3948
uer 3949
▁agora 3950
시면 3951
ws 3952
▁points 3953
▁aspect 3954
▁table 3955
encia 3956
▁naar 3957
▁degli 3958
▁simp 3959
▁compan 3960
▁fight 3961
ches 3962
▁스 3963
ży 3964
lio 3965
▁ج 3966
▁25 3967
▁fell 3968
μβ 3969
ables 3970
ilo 3971
▁때문에 3972
▁perhaps 3973
▁chall 3974
ming 3975
day 3976
▁complet 3977
agt 3978
▁fair 3979
▁including 3980
aux 3981
γμα 3982
▁suis 3983
fl 3984
ias 3985
col 3986
▁jud 3987
▁happened 3988
isc 3989
▁được 3990
är 3991
ướ 3992
nes 3993
ley 3994
▁moi 3995
▁writ 3996
ource 3997
▁wonder 3998
ành 3999
▁opt 4000
▁continue 4001
▁spo 4002
ility 4003
▁easy 4004
enta 4005
▁towards 4006
▁mel 4007
ousand 4008
▁introdu 4009
▁hanno 4010
▁Pero 4011
ég 4012
▁rap 4013
▁Bl 4014
uth 4015
▁유 4016
▁cred 4017
▁pes 4018
▁happy 4019
▁jed 4020
▁einer 4021
▁natürlich 4022
▁entire 4023
äch 4024
▁focus 4025
▁mog 4026
ですね 4027
atic 4028
▁sir 4029
▁rich 4030
▁building 4031
▁perform 4032
iled 4033
isp 4034
▁definit 4035
▁Co 4036
▁momento 4037
zcze 4038
plic 4039
▁andere 4040
▁special 4041
urity 4042
▁total 4043
▁Επιτροπή 4044
▁rights 4045
ex 4046
osta 4047
▁mein 4048
ham 4049
▁separ 4050
azioni 4051
lie 4052
uit 4053
hod 4054
izar 4055
τέ 4056
ram 4057
▁questi 4058
ifica 4059
itting 4060
▁Ν 4061
▁debate 4062
では 4063
▁però 4064
ledge 4065
▁thousand 4066
vert 4067
ده 4068
▁Europejsk 4069
▁X 4070
▁doch 4071
▁liv 4072
wie 4073
ύτε 4074
▁Wor 4075
cing 4076
▁wil 4077
▁Ph 4078
ります 4079
▁felt 4080
ực 4081
▁στα 4082
▁address 4083
에는 4084
imy 4085
▁buy 4086
ühr 4087
▁round 4088
keit 4089
▁policy 4090
ners 4091
▁President 4092
▁history 4093
▁liter 4094
▁rid 4095
▁với 4096
▁content 4097
▁tempo 4098
▁wij 4099
▁będzie 4100
now 4101
▁fol 4102
▁subject 4103
▁tax 4104
▁capac 4105
▁방 4106
▁geht 4107
▁relativ 4108
고요 4109
chaft 4110
▁wrong 4111
▁gone 4112
wnie 4113
▁subs 4114
klich 4115
▁sistema 4116
▁ready 4117
▁habl 4118
ário 4119
▁mad 4120
ires 4121
▁modo 4122
δια 4123
▁With 4124
▁gla 4125
ível 4126
▁sho 4127
▁cop 4128
πω 4129
isa 4130
ście 4131
▁waar 4132
▁ξ 4133
▁esper 4134
▁function 4135
▁mentioned 4136
▁많이 4137
▁arg 4138
▁dich 4139
pu 4140
▁cli 4141
▁self 4142
▁Maar 4143
▁αυτά 4144
▁wię 4145
▁region 4146
▁implement 4147
los 4148
▁Im 4149
▁dob 4150
▁fast 4151
▁ri 4152
▁garant 4153
ules 4154
▁πά 4155
▁personal 4156
▁moet 4157
▁Vo 4158
▁dice 4159
دا 4160
▁spr 4161
icial 4162
▁onder 4163
▁두 4164
sto 4165
▁같은 4166
▁stato 4167
▁bom 4168
enza 4169
▁seu 4170
itional 4171
دي 4172
cion 4173
ena 4174
▁ill 4175
pond 4176
aucoup 4177
▁similar 4178
▁caus 4179
ότε 4180
▁soft 4181
▁adop 4182
▁على 4183
ugar 4184
▁assim 4185
▁action 4186
▁ese 4187
▁tanto 4188
ener 4189
acy 4190
▁Ένωση 4191
▁character 4192
lijk 4193
▁fem 4194
▁conte 4195
ran 4196
▁dieser 4197
▁spirit 4198
▁amount 4199
▁ones 4200
zę 4201
▁bill 4202
▁sí 4203
▁extre 4204
▁tô 4205
▁attack 4206
▁cuando 4207
▁ped 4208
▁algo 4209
▁einfach 4210
▁specific 4211
hi 4212
▁ol 4213
▁available 4214
θη 4215
medi 4216
▁zwe 4217
νέ 4218
▁ζ 4219
▁environment 4220
▁네 4221
▁log 4222
ري 4223
▁ban 4224
har 4225
ερ 4226
▁language 4227
▁الله 4228
acional 4229
▁Ein 4230
inha 4231
lam 4232
inda 4233
tes 4234
▁therefore 4235
iful 4236
▁nella 4237
▁vais 4238
けど 4239
pen 4240
▁ما 4241
▁ś 4242
▁conta 4243
▁einem 4244
▁recogn 4245
▁din 4246
adores 4247
ordin 4248
entlich 4249
though 4250
▁tutaj 4251
▁deep 4252
▁decir 4253
▁내가 4254
ney 4255
▁autor 4256
▁sac 4257
▁poor 4258
▁ord 4259
anger 4260
▁exactly 4261
ienen 4262
▁pré 4263
▁spre 4264
▁sold 4265
▁fatto 4266
▁لا 4267
▁apr 4268
▁global 4269
ium 4270
▁pict 4271
kow 4272
rem 4273
ware 4274
▁normal 4275
στη 4276
▁dead 4277
▁wirklich 4278
▁sud 4279
▁bal 4280
▁Vamos 4281
▁tous 4282
▁grou 4283
▁συνε 4284
ittee 4285
▁ahead 4286
▁nad 4287
▁fer 4288
▁sia 4289
▁deta 4290
▁cause 4291
▁beaucoup 4292
rage 4293
▁essa 4294
▁원 4295
▁Nor 4296
eds 4297
▁puede 4298
▁tas 4299
▁months 4300
▁custom 4301
▁năm 4302
▁church 4303
▁somebody 4304
▁lost 4305
▁zou 4306
▁accept 4307
▁stre 4308
σο 4309
▁signific 4310
anza 4311
atie 4312
▁mach 4313
▁areas 4314
▁sempre 4315
▁Bo 4316
▁turned 4317
▁interess 4318
▁선 4319
▁integr 4320
▁mens 4321
▁근데 4322
heit 4323
vere 4324
▁coun 4325
▁isn 4326
ương 4327
roll 4328
▁sugg 4329
ικο 4330
uego 4331
▁seemed 4332
orts 4333
mon 4334
▁news 4335
mes 4336
▁arr 4337
χε 4338
ativa 4339
▁où 4340
rait 4341
▁indic 4342
gal 4343
▁weil 4344
▁Les 4345
▁apro 4346
ường 4347
▁Unión 4348
▁Komm 4349
fr 4350
▁ment 4351
elen 4352
と思 4353
ula 4354
maz 4355
leich 4356
quer 4357
▁informa 4358
▁sun 4359
δη 4360
▁War 4361
unto 4362
▁German 4363
▁outside 4364
ored 4365
▁ric 4366
cun 4367
▁However 4368
▁wszyst 4369
iger 4370
▁etc 4371
▁services 4372
▁US 4373
▁하고 4374
▁ton 4375
▁Ro 4376
▁force 4377
gend 4378
▁heel 4379
sta 4380
ched 4381
▁έχουν 4382
▁δικ 4383
▁μετα 4384
ól 4385
▁vraiment 4386
▁Here 4387
▁europé 4388
▁esse 4389
▁suggest 4390
▁việ 4391
▁Αυτ 4392
▁sagen 4393
▁wish 4394
▁seeing 4395
▁chodzi 4396
τικέ 4397
▁prime 4398
▁voice 4399
eth 4400
▁clos 4401
▁Jesus 4402
umento 4403
ίνει 4404
▁União 4405
そう 4406
ify 4407
▁κάν 4408
▁Δεν 4409
▁sym 4410
ases 4411
んな 4412
φα 4413
▁Ho 4414
▁document 4415
▁living 4416
δή 4417
▁돼 4418
▁disp 4419
▁machen 4420
▁John 4421
▁gracias 4422
τω 4423
▁dark 4424
▁expla 4425
bed 4426
▁foot 4427
dom 4428
▁σημαν 4429
ững 4430
▁swe 4431
▁, 4432
▁tit 4433
▁Yo 4434
ári 4435
ست 4436
όν 4437
▁신 4438
▁Συ 4439
▁dla 4440
▁Europeia 4441
▁difer 4442
▁wasn 4443
kommen 4444
eremos 4445
▁problems 4446
ασία 4447
▁이게 4448
γή 4449
▁nada 4450
▁cui 4451
▁Sec 4452
joy 4453
▁following 4454
▁nar 4455
iddle 4456
ead 4457
▁learning 4458
▁town 4459
agn 4460
▁cy 4461
▁longer 4462
▁podemos 4463
▁capital 4464
▁weiter 4465
▁θέμα 4466
▁figure 4467
ối 4468
ffen 4469
▁estas 4470
▁Der 4471
ây 4472
▁seems 4473
▁membri 4474
acji 4475
▁tipo 4476
▁media 4477
łos 4478
▁camp 4479
zt 4480
▁hol 4481
ần 4482
enty 4483
πη 4484
ią 4485
▁employ 4486
▁Ste 4487
emp 4488
▁earth 4489
aug 4490
▁الت 4491
▁flow 4492
▁ils 4493
▁lugar 4494
▁거예요 4495
υνα 4496
▁살 4497
xim 4498
▁determin 4499
▁الع 4500
▁υπάρχει 4501
▁above 4502
icle 4503
▁Tod 4504
vant 4505
▁mand 4506
▁sar 4507
bt 4508
▁ahora 4509
▁creo 4510
nej 4511
▁Parliament 4512
▁inside 4513
▁road 4514
▁instead 4515
φων 4516
oph 4517
▁stru 4518
usion 4519
▁enter 4520
rouw 4521
lier 4522
▁anc 4523
▁europeo 4524
▁ej 4525
irst 4526
▁pull 4527
▁code 4528
▁moż 4529
iding 4530
▁kra 4531
▁command 4532
▁cross 4533
action 4534
chan 4535
ift 4536
▁estar 4537
▁haven 4538
▁riguarda 4539
▁pró 4540
ので 4541
▁method 4542
▁esp 4543
▁도 4544
▁various 4545
▁indeed 4546
▁Russ 4547
▁chose 4548
▁것이 4549
otros 4550
pper 4551
▁Why 4552
▁lik 4553
▁我 4554
لي 4555
▁1, 4556
ycz 4557
▁alles 4558
▁성 4559
fen 4560
▁bott 4561
▁tar 4562
utt 4563
▁click 4564
▁Ha 4565
▁eight 4566
rim 4567
▁woll 4568
▁2020 4569
▁study 4570
▁absolut 4571
▁những 4572
▁regul 4573
fort 4574
ức 4575
▁beautiful 4576
ively 4577
▁dispos 4578
적으로 4579
▁objet 4580
▁hours 4581
▁affect 4582
▁Mo 4583
▁pack 4584
ょう 4585
▁199 4586
▁attention 4587
ograph 4588
▁legal 4589
ności 4590
iện 4591
ره 4592
lig 4593
▁=== 4594
▁vote 4595
zd 4596
▁kl 4597
▁θε 4598
cious 4599
▁어떻 4600
▁Cent 4601
▁win 4602
1, 4603
2. 4604
▁definitely 4605
▁wsp 4606
▁eben 4607
itted 4608
ala 4609
1. 4610
bro 4611
▁favore 4612
2, 4613
iu 4614
▁그냥 4615
ải 4616
▁deg 4617
▁pag 4618
nov 4619
▁boy 4620
igher 4621
▁oc 4622
▁ep 4623
▁política 4624
▁role 4625
ßen 4626
▁uw 4627
▁fundament 4628
▁kan 4629
▁comput 4630
▁enjoy 4631
▁provide 4632
son 4633
▁hit 4634
▁usually 4635
▁publ 4636
▁running 4637
ταση 4638
θή 4639
▁termin 4640
▁draw 4641
▁σύ 4642
yw 4643
▁ult 4644
▁seven 4645
▁연 4646
car 4647
ency 4648
▁save 4649
▁동 4650
άρ 4651
▁write 4652
unk 4653
▁ren 4654
σουν 4655
▁coleg 4656
▁Part 4657
▁green 4658
▁online 4659
▁meer 4660
▁knowledge 4661
▁beginning 4662
▁tend 4663
wnież 4664
▁communic 4665
hmen 4666
▁ses 4667
eda 4668
에요 4669
▁κυρ 4670
▁물 4671
▁desde 4672
▁dobbiamo 4673
iam 4674
ội 4675
ονται 4676
▁civil 4677
▁Porque 4678
aire 4679
これ 4680
▁opportunity 4681
▁contain 4682
▁sector 4683
▁prés 4684
じゃ 4685
▁fix 4686
▁esa 4687
▁möchte 4688
▁như 4689
▁international 4690
rict 4691
ogo 4692
▁autom 4693
▁associ 4694
▁어떻게 4695
istic 4696
▁profess 4697
▁crisis 4698
▁Nous 4699
▁미 4700
bert 4701
んだ 4702
tu 4703
▁page 4704
voli 4705
▁whom 4706
▁held 4707
▁quello 4708
▁meeting 4709
▁box 4710
▁agric 4711
ún 4712
▁slow 4713
▁Aust 4714
ança 4715
itude 4716
νων 4717
ομ 4718
▁ing 4719
▁pros 4720
▁equal 4721
▁dot 4722
fo 4723
▁mów 4724
▁Fin 4725
▁progress 4726
▁Mad 4727
uk 4728
▁administ 4729
▁Β 4730
▁consegu 4731
▁cooper 4732
ijd 4733
▁except 4734
▁feet 4735
hand 4736
do 4737
glich 4738
▁American 4739
śli 4740
اب 4741
book 4742
▁문 4743
γγ 4744
▁happens 4745
▁Ό 4746
που 4747
▁divers 4748
▁trava 4749
▁menos 4750
▁concept 4751
▁todas 4752
▁chann 4753
beit 4754
▁higher 4755
▁sorry 4756
ened 4757
▁milit 4758
arily 4759
▁así 4760
▁Are 4761
▁để 4762
ince 4763
ffe 4764
itz 4765
▁West 4766
over 4767
▁education 4768
uti 4769
ちゃ 4770
angen 4771
▁plat 4772
▁certainly 4773
▁kom 4774
▁color 4775
▁goed 4776
ρου 4777
leicht 4778
ίου 4779
▁그러면 4780
▁gent 4781
▁올 4782
band 4783
▁notre 4784
lag 4785
▁Med 4786
▁systems 4787
▁정도 4788
▁ici 4789
▁1. 4790
abe 4791
▁cell 4792
لم 4793
▁gets 4794
▁imm 4795
▁obviously 4796
▁hour 4797
▁Sy 4798
▁heav 4799
▁led 4800
▁Intern 4801
ceed 4802
ικέ 4803
▁Parlament 4804
ían 4805
▁Υ 4806
▁państ 4807
nal 4808
uerd 4809
▁عن 4810
▁disco 4811
でも 4812
nego 4813
empt 4814
▁financi 4815
izione 4816
▁voy 4817
emente 4818
▁trade 4819
▁받 4820
was 4821
▁wife 4822
δώ 4823
▁fill 4824
▁relationship 4825
dy 4826
▁ر 4827
▁Το 4828
assen 4829
▁بال 4830
▁encore 4831
oses 4832
▁mic 4833
▁questão 4834
ước 4835
▁nun 4836
▁Comisión 4837
들을 4838
هم 4839
▁rock 4840
▁ko 4841
cji 4842
▁quickly 4843
▁– 4844
vole 4845
▁wall 4846
▁possibil 4847
ators 4848
▁age 4849
ną 4850
▁assist 4851
face 4852
cies 4853
▁Su 4854
rer 4855
▁관 4856
▁truth 4857
▁digital 4858
▁Ser 4859
oint 4860
ises 4861
sche 4862
▁leur 4863
▁può 4864
▁nego 4865
▁meu 4866
▁Ter 4867
▁neces 4868
rze 4869
▁sudden 4870
nos 4871
▁어떤 4872
다가 4873
μι 4874
eln 4875
▁Bar 4876
▁tema 4877
gl 4878
▁temps 4879
oso 4880
▁giving 4881
▁gan 4882
▁gas 4883
▁becom 4884
▁economic 4885
inho 4886
들은 4887
für 4888
▁modern 4889
▁Rep 4890
▁él 4891
elling 4892
▁prima 4893
▁By 4894
으면 4895
▁Europese 4896
▁society 4897
▁actual 4898
▁cru 4899
iting 4900
▁citiz 4901
▁commer 4902
osten 4903
▁últ 4904
▁다음에 4905
▁mundo 4906
▁tour 4907
▁tej 4908
▁αυ 4909
▁stati 4910
▁investig 4911
▁budget 4912
των 4913
light 4914
▁ful 4915
▁bil 4916
ival 4917
▁queste 4918
enne 4919
▁cri 4920
▁cin 4921
▁independ 4922
▁tras 4923
eks 4924
μαστε 4925
ział 4926
▁alone 4927
▁board 4928
ensive 4929
▁hot 4930
▁الح 4931
attle 4932
ró 4933
▁engine 4934
▁security 4935
νή 4936
▁발 4937
était 4938
isse 4939
▁search 4940
▁경우 4941
▁실 4942
ład 4943
▁sulla 4944
▁wurde 4945
▁current 4946
lect 4947
▁Quindi 4948
▁takes 4949
▁century 4950
bur 4951
▁specif 4952
▁descri 4953
▁Mit 4954
ận 4955
▁floor 4956
▁bez 4957
tr 4958
▁recomm 4959
▁również 4960
▁Ant 4961
▁あ 4962
▁50 4963
▁Brit 4964
▁instrument 4965
ification 4966
▁tener 4967
▁technology 4968
▁companies 4969
inten 4970
▁standard 4971
▁doll 4972
ingu 4973
▁avait 4974
rop 4975
▁συζ 4976
ops 4977
▁cat 4978
▁wid 4979
▁built 4980
▁soul 4981
▁aos 4982
asing 4983
▁agree 4984
▁First 4985
▁created 4986
▁faz 4987
その 4988
▁talked 4989
jour 4990
세요 4991
itution 4992
▁خ 4993
τηση 4994
▁science 4995
▁też 4996
▁mejor 4997
▁sei 4998
▁mont 4999
ías 5000
▁groups 5001
ίω 5002
▁λό 5003
aster 5004
▁petit 5005
order 5006
▁Dus 5007
▁못 5008
▁얘기 5009
▁걸 5010
▁Fe 5011
▁paper 5012
▁adm 5013
àn 5014
▁China 5015
antly 5016
▁versch 5017
ίνεται 5018
ielen 5019
れる 5020
▁kle 5021
いい 5022
بي 5023
org 5024
bia 5025
▁include 5026
wod 5027
▁interven 5028
ün 5029
▁nue 5030
▁bả 5031
▁moving 5032
ição 5033
▁ó 5034
▁Mus 5035
5. 5036
ammen 5037
▁toda 5038
▁hur 5039
ivos 5040
isf 5041
atori 5042
▁path 5043
▁empres 5044
▁vie 5045
▁hers 5046
▁cases 5047
ações 5048
▁denn 5049
5, 5050
▁parece 5051
▁który 5052
▁correct 5053
▁population 5054
▁fois 5055
uments 5056
ić 5057
▁lady 5058
▁eig 5059
のは 5060
▁obser 5061
▁star 5062
▁send 5063
거든 5064
▁particularly 5065
iser 5066
ματο 5067
▁était 5068
▁prepar 5069
▁proposta 5070
3, 5071
▁rif 5072
▁risk 5073
▁music 5074
んで 5075
μή 5076
▁están 5077
." 5078
▁nation 5079
▁Merci 5080
ruction 5081
σκ 5082
▁san 5083
▁sla 5084
ieur 5085
▁phil 5086
essa 5087
▁worth 5088
ητή 5089
▁loro 5090
▁below 5091
▁pense 5092
▁damit 5093
▁achie 5094
됩니다 5095
▁Tur 5096
لك 5097
hes 5098
ciones 5099
▁sex 5100
▁Gu 5101
▁- 5102
▁initi 5103
▁μη 5104
▁som 5105
▁paesi 5106
▁immedi 5107
▁وا 5108
▁sig 5109
가지고 5110
▁resources 5111
▁feeling 5112
▁lab 5113
vid 5114
▁late 5115
▁chance 5116
▁αντι 5117
niej 5118
▁alter 5119
▁vida 5120
▁deze 5121
▁condu 5122
thern 5123
▁happening 5124
ούλ 5125
▁simply 5126
▁Mal 5127
liche 5128
▁cand 5129
▁lavoro 5130
▁sust 5131
iar 5132
▁Coun 5133
▁ideas 5134
▁bisog 5135
▁scient 5136
▁gel 5137
ians 5138
▁Act 5139
▁solid 5140
▁Ten 5141
▁24 5142
▁tried 5143
▁Fl 5144
▁dear 5145
▁chap 5146
▁quar 5147
iner 5148
▁select 5149
▁belang 5150
éc 5151
▁whose 5152
▁huge 5153
▁ص 5154
▁wür 5155
▁pregun 5156
▁nou 5157
etic 5158
▁via 5159
▁ved 5160
▁secret 5161
▁απ 5162
teen 5163
▁party 5164
verse 5165
▁parts 5166
▁plant 5167
▁stri 5168
▁source 5169
▁Είναι 5170
▁avez 5171
▁avoir 5172
▁minute 5173
ουλ 5174
▁surpr 5175
▁miem 5176
▁webs 5177
niczą 5178
▁Every 5179
▁thus 5180
▁trust 5181
▁αφορά 5182
▁involved 5183
vil 5184
▁tudo 5185
ggi 5186
▁đị 5187
δε 5188
▁passed 5189
▁amend 5190
▁mur 5191
▁ship 5192
▁già 5193
▁changes 5194
▁오늘 5195
れた 5196
▁độ 5197
▁đến 5198
▁dru 5199
▁distrib 5200
oria 5201
▁μεγ 5202
pra 5203
üt 5204
▁Mens 5205
▁sit 5206
▁estos 5207
▁votre 5208
ispiel 5209
▁dafür 5210
▁jus 5211
▁worked 5212
▁complex 5213
▁industry 5214
▁mrs 5215
▁lord 5216
▁γιατί 5217
len 5218
▁czł 5219
▁jur 5220
yer 5221
しい 5222
부터 5223
▁CO 5224
pose 5225
λω 5226
elles 5227
▁engag 5228
▁cha 5229
▁되는 5230
▁gives 5231
ological 5232
▁Sc 5233
ξει 5234
ivi 5235
▁fear 5236
▁watching 5237
wodniczą 5238
▁keine 5239
isation 5240
▁tienen 5241
ills 5242
▁id 5243
▁مع 5244
iction 5245
3. 5246
▁Inst 5247
▁왜 5248
▁wszystk 5249
▁guard 5250
▁nhi 5251
íamos 5252
▁University 5253
auf 5254
▁ec 5255
ging 5256
ál 5257
▁cada 5258
igt 5259
var 5260
とか 5261
▁ball 5262
▁completely 5263
óm 5264
qui 5265
rist 5266
ίζω 5267
▁poco 5268
▁strength 5269
▁difference 5270
▁μου 5271
ork 5272
ests 5273
▁arch 5274
unque 5275
▁diesem 5276
▁waren 5277
▁estão 5278
▁practice 5279
▁blue 5280
▁remo 5281
▁cast 5282
▁series 5283
▁written 5284
▁limit 5285
inen 5286
でき 5287
▁dog 5288
▁너무 5289
usammen 5290
erem 5291
▁mucho 5292
▁His 5293
▁io 5294
▁europea 5295
▁rapid 5296
▁διά 5297
▁aver 5298
▁mechan 5299
▁piece 5300
▁맞 5301
▁subst 5302
▁Dep 5303
chten 5304
▁wouldn 5305
ande 5306
▁Pan 5307
▁ainda 5308
aking 5309
▁đó 5310
κα 5311
▁acuerd 5312
icar 5313
▁finally 5314
inge 5315
▁의 5316
▁avere 5317
amenti 5318
eless 5319
erson 5320
yond 5321
▁grad 5322
πολογ 5323
▁futuro 5324
▁president 5325
▁τέ 5326
tare 5327
onse 5328
▁confl 5329
nde 5330
▁welcome 5331
▁만들 5332
▁leav 5333
▁concent 5334
▁tun 5335
τεύ 5336
▁perspect 5337
▁być 5338
▁private 5339
▁μπορεί 5340
▁hemos 5341
▁claim 5342
▁về 5343
▁hem 5344
▁드 5345
▁original 5346
▁broad 5347
bon 5348
μού 5349
▁needed 5350
▁web 5351
uur 5352
▁Alright 5353
cking 5354
war 5355
▁bueno 5356
bru 5357
▁irgend 5358
▁direction 5359
▁prod 5360
aught 5361
▁Sim 5362
▁peace 5363
rod 5364
ということ 5365
▁algum 5366
▁cry 5367
에게 5368
▁necessary 5369
▁quant 5370
μω 5371
uso 5372
νοβ 5373
ension 5374
▁dus 5375
▁rob 5376
▁isto 5377
▁multip 5378
▁mesmo 5379
▁Council 5380
erc 5381
▁ι 5382
wozd 5383
powied 5384
gra 5385
ηση 5386
▁frame 5387
▁spraw 5388
ính 5389
▁experien 5390
▁Vous 5391
ucht 5392
▁ά 5393
▁positive 5394
▁antes 5395
▁transport 5396
▁tutto 5397
8, 5398
▁serious 5399
▁hop 5400
▁gesagt 5401
▁ons 5402
▁ela 5403
▁appear 5404
▁lives 5405
▁Aus 5406
▁note 5407
▁wordt 5408
σεων 5409
▁terror 5410
▁zich 5411
▁Cor 5412
▁geh 5413
aby 5414
▁ast 5415
▁vict 5416
▁faith 5417
▁komis 5418
ander 5419
▁obrigada 5420
▁χώ 5421
▁minist 5422
▁Again 5423
waż 5424
▁institut 5425
▁δύ 5426
▁2, 5427
φέ 5428
▁transpar 5429
▁반 5430
▁nosotros 5431
▁received 5432
elho 5433
▁increase 5434
▁geen 5435
▁circ 5436
▁한번 5437
uis 5438
▁coup 5439
▁głos 5440
▁middle 5441
▁avons 5442
▁World 5443
imiento 5444
▁After 5445
▁voir 5446
▁pays 5447
▁added 5448
▁mort 5449
▁dial 5450
▁gesch 5451
▁χρη 5452
▁hair 5453
▁territ 5454
▁univers 5455
▁blood 5456
▁gran 5457
άζ 5458
▁rate 5459
Euro 5460
żeli 5461
room 5462
▁letter 5463
▁host 5464
▁됩니다 5465
ώσει 5466
▁Come 5467
ublic 5468
▁oblig 5469
▁dif 5470
▁dere 5471
δα 5472
amen 5473
load 5474
▁improve 5475
▁results 5476
▁platform 5477
▁Sen 5478
▁Lord 5479
▁장 5480
vest 5481
▁Ang 5482
▁até 5483
anh 5484
▁Πρό 5485
él 5486
▁μό 5487
▁agr 5488
issen 5489
▁tại 5490
▁although 5491
ام 5492
▁vielleicht 5493
▁남 5494
wią 5495
yle 5496
vision 5497
ουργ 5498
▁interested 5499
▁possib 5500
▁App 5501
▁office 5502
▁εργ 5503
▁ancora 5504
ountain 5505
▁설 5506
▁vog 5507
▁wä 5508
oli 5509
▁decl 5510
▁tent 5511
ầu 5512
▁Dann 5513
には 5514
▁places 5515
ούλιο 5516
▁lat 5517
▁Any 5518
amm 5519
っていう 5520
▁culture 5521
▁voilà 5522
▁mant 5523
▁confer 5524
4, 5525
asi 5526
▁hun 5527
▁Ce 5528
▁carry 5529
▁wichtig 5530
▁gentle 5531
▁우리가 5532
▁mijn 5533
▁2. 5534
▁require 5535
ahren 5536
▁review 5537
▁reform 5538
▁livello 5539
ière 5540
υρώ 5541
λον 5542
ời 5543
▁fif 5544
▁될 5545
▁forg 5546
▁fish 5547
▁vill 5548
▁presidente 5549
▁불 5550
▁altri 5551
▁channel 5552
éri 5553
▁Pre 5554
▁ok 5555
▁εδώ 5556
ồng 5557
▁égal 5558
▁screen 5559
▁Where 5560
ちょ 5561
▁financial 5562
▁ps 5563
▁respond 5564
ising 5565
▁wood 5566
icient 5567
▁decision 5568
▁Mon 5569
▁sleep 5570
7, 5571
▁master 5572
▁thì 5573
▁powin 5574
▁favour 5575
ellig 5576
▁Po 5577
▁τώρα 5578
nym 5579
▁beyond 5580
▁Ç 5581
▁pessoas 5582
▁Inter 5583
▁mid 5584
ague 5585
▁pub 5586
▁Ça 5587
▁wants 5588
▁Komis 5589
ền 5590
▁extrem 5591
▁contact 5592
▁κάπο 5593
▁pelo 5594
τών 5595
▁anni 5596
▁Much 5597
▁occup 5598
▁train 5599
▁dieses 5600
äs 5601
▁È 5602
vez 5603
▁eye 5604
6, 5605
asse 5606
isten 5607
zar 5608
▁배 5609
eme 5610
▁결 5611
ũng 5612
9, 5613
▁according 5614
▁pleas 5615
zw 5616
▁komm 5617
▁herself 5618
▁card 5619
back 5620
▁gef 5621
▁rules 5622
▁καλ 5623
▁있어요 5624
▁sic 5625
▁Gru 5626
▁tiem 5627
▁차 5628
▁cel 5629
▁site 5630
▁서 5631
▁commission 5632
zza 5633
iero 5634
▁National 5635
▁oppos 5636
▁mainten 5637
▁sn 5638
▁phot 5639
ίσ 5640
νό 5641
atures 5642
υση 5643
cast 5644
▁Cal 5645
▁따 5646
▁감 5647
entially 5648
▁citizens 5649
▁deliver 5650
▁conditions 5651
ống 5652
▁emp 5653
▁Για 5654
sh 5655
적인 5656
θούν 5657
▁vista 5658
وم 5659
▁Ital 5660
▁Κα 5661
airs 5662
▁prot 5663
9. 5664
jà 5665
▁nombre 5666
▁absolutely 5667
zion 5668
▁mov 5669
▁cả 5670
▁dent 5671
▁film 5672
itas 5673
ract 5674
▁απα 5675
▁version 5676
ρια 5677
▁labor 5678
▁changed 5679
äng 5680
χει 5681
▁οποία 5682
▁¡ 5683
ρει 5684
emple 5685
▁acqu 5686
▁till 5687
▁court 5688
iers 5689
▁nome 5690
▁production 5691
▁stood 5692
▁εμ 5693
gio 5694
ρισ 5695
aient 5696
▁besch 5697
▁gre 5698
▁zal 5699
itation 5700
▁straight 5701
orge 5702
▁eigen 5703
utions 5704
áng 5705
▁basis 5706
▁temper 5707
lin 5708
거든요 5709
δι 5710
olle 5711
▁kraj 5712
どう 5713
arde 5714
▁detto 5715
ượng 5716
wiście 5717
czywiście 5718
▁gaan 5719
▁τε 5720
ierung 5721
▁mano 5722
▁depo 5723
▁perd 5724
▁Will 5725
▁anderen 5726
▁appre 5727
▁lle 5728
▁Buen 5729
たい 5730
▁picture 5731
▁Look 5732
▁amaz 5733
▁etwas 5734
▁dizer 5735
▁starting 5736
▁ora 5737
wise 5738
▁ét 5739
chi 5740
▁falar 5741
しょう 5742
▁조금 5743
χή 5744
▁rapport 5745
brig 5746
▁decided 5747
ogen 5748
▁당 5749
▁ejemplo 5750
▁size 5751
iano 5752
olt 5753
▁unf 5754
▁central 5755
▁Au 5756
aries 5757
▁kept 5758
▁przed 5759
▁segur 5760
▁lic 5761
εδρε 5762
▁Os 5763
▁casa 5764
γρα 5765
▁movement 5766
▁diesen 5767
apt 5768
θέ 5769
asion 5770
▁push 5771
cip 5772
▁Maybe 5773
atives 5774
▁origin 5775
▁depois 5776
8. 5777
▁누 5778
▁ay 5779
▁này 5780
▁. 5781
iling 5782
mem 5783
ring 5784
ちょっと 5785
▁solution 5786
▁considered 5787
▁message 5788
▁Como 5789
▁west 5790
ares 5791
▁ανά 5792
hood 5793
▁wiel 5794
▁bottom 5795
ición 5796
▁touch 5797
▁roll 5798
▁aby 5799
▁doen 5800
▁πιο 5801
▁sprawozd 5802
▁carried 5803
▁οικο 5804
▁Di 5805
▁enf 5806
▁interpre 5807
▁lower 5808
▁된 5809
这个 5810
▁σχέ 5811
λου 5812
▁Ass 5813
▁nem 5814
▁πο 5815
▁하나님 5816
▁cara 5817
▁leaders 5818
θεση 5819
ban 5820
▁gia 5821
▁twenty 5822
▁202 5823
▁safe 5824
▁contre 5825
▁먹 5826
▁stream 5827
▁protection 5828
▁encont 5829
▁pati 5830
▁ut 5831
▁quality 5832
▁Europä 5833
▁nell 5834
occ 5835
4. 5836
▁Beispiel 5837
▁khi 5838
▁κρά 5839
▁tegen 5840
▁target 5841
▁earlier 5842
▁miembros 5843
かな 5844
▁og 5845
▁재 5846
▁매 5847
▁Na 5848
▁Tam 5849
θυ 5850
orden 5851
▁così 5852
▁prep 5853
▁website 5854
▁kwest 5855
▁你 5856
▁attempt 5857
▁Você 5858
▁glaube 5859
▁books 5860
▁Res 5861
▁discussion 5862
petto 5863
▁également 5864
▁음 5865
▁tych 5866
▁eigentlich 5867
artment 5868
ório 5869
uda 5870
rote 5871
▁types 5872
▁clean 5873
▁às 5874
▁mut 5875
▁pel 5876
▁feed 5877
▁twe 5878
▁match 5879
▁όπω 5880
▁Wenn 5881
▁gaat 5882
ίτε 5883
▁mercado 5884
▁Λ 5885
▁opinion 5886
▁brother 5887
izing 5888
▁już 5889
▁playing 5890
▁pom 5891
▁recon 5892
▁Unter 5893
▁context 5894
▁weeks 5895
▁popular 5896
▁sais 5897
▁lleg 5898
▁Who 5899
▁déjà 5900
▁Ι 5901
▁travel 5902
▁déc 5903
ously 5904
▁agricult 5905
▁ded 5906
▁capt 5907
▁ble 5908
▁verb 5909
▁40 5910
aven 5911
cks 5912
anced 5913
lace 5914
▁vert 5915
iego 5916
uly 5917
▁influ 5918
▁ήθε 5919
▁' 5920
▁강 5921
âm 5922
ughter 5923
▁structure 5924
▁cloud 5925
orevole 5926
ground 5927
▁training 5928
도록 5929
bst 5930
▁dovre 5931
▁products 5932
cient 5933
▁Menschen 5934
▁trop 5935
ół 5936
▁nó 5937
astic 5938
▁encou 5939
eness 5940
▁responsabil 5941
▁knows 5942
▁einmal 5943
isschen 5944
▁prem 5945
▁purpose 5946
▁numbers 5947
ktion 5948
6. 5949
-1 5950
▁protect 5951
▁ahí 5952
▁ring 5953
▁sans 5954
▁πω 5955
인데 5956
▁그렇게 5957
▁neigh 5958
▁cái 5959
▁Αυτό 5960
▁YouT 5961
▁trabalho 5962
orrow 5963
aken 5964
lko 5965
▁infl 5966
▁Los 5967
▁effective 5968
▁từ 5969
▁block 5970
▁także 5971
ốn 5972
▁polity 5973
▁pier 5974
▁honest 5975
▁sido 5976
7. 5977
▁proc 5978
łe 5979
▁cũng 5980
rä 5981
alu 5982
▁forget 5983
▁facil 5984
▁Conse 5985
잖아요 5986
▁luego 5987
▁raz 5988
▁English 5989
izi 5990
▁melhor 5991
▁약 5992
just 5993
raft 5994
itive 5995
▁eat 5996
▁libr 5997
eur 5998
▁lad 5999
uchen 6000
▁military 6001
▁videos 6002
▁gegen 6003
▁supposed 6004
▁cual 6005
σσ 6006
▁spot 6007
ρίζ 6008
▁συμφων 6009
▁적 6010
▁jes 6011
play 6012
indo 6013
una 6014
▁soit 6015
▁ευ 6016
▁esemp 6017
ré 6018
net 6019
▁hecho 6020
lim 6021
▁sau 6022
▁claro 6023
▁tor 6024
▁couldn 6025
もう 6026
lying 6027
▁hatte 6028
bol 6029
▁dream 6030
▁fit 6031
▁tin 6032
ostaria 6033
essed 6034
▁projects 6035
rica 6036
▁Ele 6037
▁años 6038
▁negative 6039
áp 6040
ball 6041
▁haar 6042
▁الس 6043
▁부분 6044
wick 6045
▁단 6046
▁citt 6047
▁tan 6048
▁challeng 6049
▁obrigado 6050
▁frequ 6051
▁tiempo 6052
äm 6053
▁cele 6054
▁regular 6055
▁Land 6056
▁nossa 6057
▁South 6058
▁Nie 6059
yed 6060
▁د 6061
▁Jap 6062
します 6063
▁Du 6064
▁bisschen 6065
▁οποίο 6066
ور 6067
▁writing 6068
▁doubt 6069
▁growth 6070
▁nuo 6071
ają 6072
▁파 6073
▁então 6074
▁monde 6075
▁conversation 6076
▁hace 6077
iles 6078
▁νέ 6079
ários 6080
▁gold 6081
ơn 6082
▁altern 6083
▁meaning 6084
▁See 6085
▁satisf 6086
▁ασ 6087
▁followed 6088
▁exec 6089
▁alors 6090
▁putting 6091
ery 6092
akt 6093
jours 6094
ißt 6095
▁έκ 6096
▁Frage 6097
▁Hay 6098
φέρ 6099
▁Frau 6100
hold 6101
rible 6102
▁learned 6103
면은 6104
μεί 6105
asons 6106
▁finanzi 6107
▁tele 6108
▁Portanto 6109
▁understanding 6110
▁등 6111
▁Para 6112
enge 6113
▁그렇 6114
▁cómo 6115
nte 6116
▁file 6117
▁gain 6118
las 6119
▁quoi 6120
▁collect 6121
▁song 6122
zz 6123
▁rapporte 6124
vem 6125
▁visto 6126
▁ω 6127
▁ήθελα 6128
▁lid 6129
▁item 6130
▁internet 6131
▁offer 6132
▁excl 6133
voor 6134
inte 6135
▁aller 6136
▁former 6137
▁τρο 6138
atory 6139
▁bere 6140
▁greater 6141
▁mà 6142
itti 6143
▁innov 6144
▁shows 6145
▁Dr 6146
▁hiện 6147
▁Kommission 6148
hui 6149
▁αρχ 6150
▁mie 6151
▁pergun 6152
bie 6153
▁price 6154
iques 6155
▁입 6156
ii 6157
よね 6158
▁今 6159
pri 6160
▁집 6161
▁speaking 6162
anç 6163
▁partners 6164
▁χώρε 6165
▁visit 6166
formation 6167
▁może 6168
▁management 6169
▁señora 6170
▁meine 6171
▁fue 6172
anch 6173
cción 6174
," 6175
ραγμα 6176
▁après 6177
▁ngày 6178
▁Spe 6179
▁minha 6180
▁zero 6181
στή 6182
jourd 6183
lies 6184
▁hein 6185
▁Κοι 6186
arden 6187
▁dois 6188
▁αυτέ 6189
▁Har 6190
▁collabor 6191
ạn 6192
▁확 6193
▁rze 6194
▁band 6195
▁entonces 6196
それ 6197
fol 6198
iveau 6199
▁tylko 6200
▁France 6201
▁Dem 6202
▁rou 6203
▁danger 6204
▁developed 6205
▁ign 6206
▁Voilà 6207
▁mismo 6208
iendo 6209
▁reading 6210
▁offic 6211
▁작 6212
pression 6213
▁Ke 6214
▁north 6215
はい 6216
là 6217
▁prefer 6218
▁Pour 6219
▁사용 6220
▁Zeit 6221
▁discover 6222
▁relazione 6223
▁현 6224
uppo 6225
ake 6226
▁King 6227
▁μόνο 6228
▁throughout 6229
▁forth 6230
▁chem 6231
▁sond 6232
▁Good 6233
ện 6234
lare 6235
▁Gener 6236
▁Nat 6237
▁tant 6238
▁말씀 6239
▁belangrij 6240
ني 6241
rient 6242
▁Ges 6243
▁YouTube 6244
어서 6245
▁막 6246
▁fundamental 6247
▁connect 6248
▁saf 6249
▁seja 6250
kte 6251
▁싶 6252
▁related 6253
▁nei 6254
▁toujours 6255
▁Cha 6256
kel 6257
시는 6258
ób 6259
τό 6260
▁Państ 6261
▁temat 6262
▁reun 6263
▁cô 6264
▁pad 6265
àng 6266
▁saber 6267
▁zwei 6268
▁image 6269
▁acuerdo 6270
via 6271
enas 6272
▁Ih 6273
▁dân 6274
". 6275
▁Lib 6276
cn 6277
▁ali 6278
ật 6279
idge 6280
▁στον 6281
▁eer 6282
▁pú 6283
▁Ed 6284
inn 6285
ality 6286
λαδή 6287
▁tim 6288
▁Ol 6289
▁siamo 6290
▁Bon 6291
aron 6292
λι 6293
ciał 6294
▁têm 6295
ativo 6296
كم 6297
▁trib 6298
▁repe 6299
就是 6300
arios 6301
▁Questo 6302
▁Our 6303
▁Vor 6304
rast 6305
▁events 6306
▁rule 6307
▁pela 6308
plac 6309
ua 6310
▁lei 6311
ités 6312
▁ήταν 6313
▁famil 6314
▁cold 6315
▁mamy 6316
owanie 6317
ăng 6318
▁plann 6319
▁tôi 6320
▁meant 6321
▁clar 6322
▁ig 6323
▁Wo 6324
▁moved 6325
▁Those 6326
▁evol 6327
▁agreement 6328
λει 6329
kl 6330
▁ψη 6331
▁198 6332
▁ط 6333
▁demon 6334
▁drink 6335
▁throw 6336
かった 6337
▁stage 6338
▁crim 6339
erve 6340
▁utiliz 6341
▁pron 6342
ków 6343
ài 6344
νου 6345
▁Dav 6346
▁Nós 6347
▁histor 6348
ấy 6349
▁Auf 6350
▁κύριο 6351
▁India 6352
▁center 6353
chts 6354
▁describ 6355
▁παρά 6356
▁resist 6357
▁network 6358
▁speed 6359
▁Mitgli 6360
▁regional 6361
γώ 6362
▁wrote 6363
arg 6364
arse 6365
ienia 6366
50 6367
▁insp 6368
▁cela 6369
inder 6370
▁21 6371
▁assum 6372
ogle 6373
reich 6374
시고 6375
▁Pani 6376
eles 6377
▁mission 6378
▁Ear 6379
▁anyone 6380
rol 6381
▁mine 6382
ager 6383
▁colon 6384
▁pil 6385
yl 6386
▁fan 6387
▁generally 6388
▁palav 6389
▁likely 6390
▁diz 6391
ốc 6392
staw 6393
▁odpowied 6394
▁χρό 6395
▁veel 6396
▁onze 6397
ùng 6398
▁desp 6399
▁Minister 6400
isk 6401
▁economy 6402
▁sitting 6403
▁필 6404
cap 6405
ισμό 6406
▁range 6407
▁bound 6408
▁island 6409
▁rat 6410
▁Vors 6411
▁진짜 6412
▁willen 6413
▁virt 6414
▁politica 6415
▁directly 6416
▁zeg 6417
▁evidence 6418
▁człon 6419
▁premi 6420
▁facto 6421
など 6422
inc 6423
▁viv 6424
▁tools 6425
▁allowed 6426
まで 6427
▁Mich 6428
▁committee 6429
ID 6430
▁συγκ 6431
more 6432
▁Hol 6433
▁esempio 6434
▁πολιτική 6435
ês 6436
gy 6437
▁analys 6438
▁jeszcze 6439
▁asking 6440
▁υπάρχουν 6441
▁있고 6442
uest 6443
edom 6444
imas 6445
▁pred 6446
ota 6447
urd 6448
▁dentro 6449
なんです 6450
▁Prze 6451
▁choose 6452
van 6453
▁저는 6454
▁lines 6455
▁Char 6456
▁penso 6457
▁compar 6458
volution 6459
bit 6460
▁앞 6461
▁south 6462
▁powied 6463
care 6464
▁consist 6465
▁occur 6466
▁democra 6467
▁gleich 6468
▁これ 6469
▁stick 6470
ió 6471
▁complete 6472
ục 6473
▁philos 6474
▁palab 6475
▁daß 6476
▁died 6477
kład 6478
▁continued 6479
ιση 6480
▁Tra 6481
▁ở 6482
▁Ευρώ 6483
▁climate 6484
▁quad 6485
▁gover 6486
▁trois 6487
iglio 6488
こう 6489
mit 6490
▁trên 6491
▁solu 6492
▁observ 6493
▁Stati 6494
▁breat 6495
▁jump 6496
eres 6497
agem 6498
▁쓰 6499
▁Bro 6500
▁προβ 6501
ères 6502
úng 6503
▁σημαντικό 6504
▁ähm 6505
▁mia 6506
idé 6507
▁será 6508
▁hoe 6509
▁최 6510
uted 6511
ront 6512
▁distin 6513
كن 6514
▁او 6515
ετε 6516
▁υπέρ 6517
▁intellig 6518
cript 6519
▁fest 6520
▁erst 6521
▁gens 6522
▁coisa 6523
▁kids 6524
▁νομ 6525
chos 6526
▁recommend 6527
▁coordin 6528
▁więc 6529
▁property 6530
▁minister 6531
▁commissie 6532
▁nap 6533
▁North 6534
▁games 6535
▁christ 6536
▁measure 6537
▁evening 6538
▁America 6539
▁brief 6540
zitter 6541
▁würde 6542
▁Ευρώπη 6543
▁nhân 6544
conóm 6545
▁curr 6546
▁born 6547
▁ade 6548
▁farm 6549
▁fais 6550
▁λέ 6551
nia 6552
▁Art 6553
▁drug 6554
▁thành 6555
eta 6556
▁donde 6557
rupt 6558
ays 6559
▁glad 6560
日本 6561
▁κυρία 6562
oma 6563
▁통 6564
▁hous 6565
一个 6566
▁lig 6567
ăn 6568
이라고 6569
fall 6570
▁ί 6571
rzy 6572
▁controll 6573
▁bast 6574
▁cambi 6575
▁launch 6576
게요 6577
▁sondern 6578
imate 6579
νά 6580
uros 6581
▁student 6582
▁sehen 6583
bil 6584
▁hin 6585
istas 6586
▁otros 6587
ển 6588
▁durante 6589
oti 6590
▁δυνα 6591
elijke 6592
▁mí 6593
▁lado 6594
▁الق 6595
다면 6596
▁sag 6597
ught 6598
rench 6599
▁viene 6600
membros 6601
▁prison 6602
▁naj 6603
▁notice 6604
▁그럼 6605
▁physical 6606
δικ 6607
▁gust 6608
▁đồng 6609
▁この 6610
▁chat 6611
εδο 6612
ester 6613
▁ber 6614
▁Obrig 6615
▁instance 6616
مه 6617
atz 6618
ität 6619
agues 6620
τυ 6621
▁nine 6622
▁niveau 6623
▁Hey 6624
▁British 6625
cen 6626
▁micro 6627
▁هذا 6628
uje 6629
▁나오 6630
▁theory 6631
χι 6632
▁quan 6633
▁toch 6634
▁Paul 6635
▁amazing 6636
▁compon 6637
▁ensure 6638
▁otro 6639
▁fle 6640
▁projet 6641
▁heißt 6642
▁heute 6643
▁famili 6644
▁stata 6645
%. 6646
▁hus 6647
hm 6648
ße 6649
ius 6650
▁police 6651
▁answered 6652
zenia 6653
ęp 6654
▁dalla 6655
▁consequ 6656
▁appreci 6657
▁cham 6658
▁cert 6659
▁prevent 6660
▁dare 6661
▁date 6662
▁qua 6663
▁wild 6664
▁moins 6665
▁hast 6666
什么 6667
▁Ou 6668
▁thou 6669
▁había 6670
▁aj 6671
emic 6672
▁condition 6673
▁situazione 6674
▁όμω 6675
▁verdad 6676
▁ourselves 6677
ef 6678
SA 6679
▁việc 6680
χο 6681
▁useful 6682
▁느 6683
▁maintain 6684
▁threat 6685
▁Abst 6686
▁합니다 6687
▁comfort 6688
▁ciud 6689
▁mix 6690
▁deleg 6691
uta 6692
▁gun 6693
▁infrast 6694
▁manif 6695
▁thu 6696
▁nostra 6697
▁setting 6698
▁aim 6699
▁tecn 6700
▁anos 6701
▁rend 6702
▁slight 6703
▁migli 6704
▁length 6705
عد 6706
▁tree 6707
▁apresent 6708
▁달 6709
▁somm 6710
▁disse 6711
▁الى 6712
late 6713
▁Bud 6714
▁해서 6715
▁περισσ 6716
ément 6717
érie 6718
τούμε 6719
▁telling 6720
▁application 6721
▁추 6722
▁πάρα 6723
▁κάτι 6724
▁exemple 6725
▁cosas 6726
▁clearly 6727
wij 6728
▁Ob 6729
▁họ 6730
▁όλα 6731
もの 6732
ząd 6733
▁loss 6734
▁περισσότε 6735
▁sell 6736
▁ισ 6737
▁Bueno 6738
▁dise 6739
▁cried 6740
▁From 6741
nah 6742
▁euch 6743
▁quelque 6744
▁viele 6745
▁surface 6746
▁다시 6747
▁gerade 6748
▁York 6749
▁있었 6750
▁problemas 6751
▁doctor 6752
▁collega 6753
uj 6754
▁halt 6755
▁μπορούμε 6756
ρον 6757
gel 6758
▁distance 6759
▁season 6760
▁197 6761
대로 6762
▁reached 6763
▁Trans 6764
▁ema 6765
▁jou 6766
illa 6767
▁Ok 6768
▁exemplo 6769
ape 6770
▁People 6771
eros 6772
rais 6773
▁Sí 6774
▁choses 6775
▁calcul 6776
▁fail 6777
▁aconte 6778
▁사실 6779
▁mayor 6780
inar 6781
▁rés 6782
rael 6783
▁pressure 6784
▁Υπ 6785
▁Dire 6786
▁hasta 6787
▁nú 6788
▁entr 6789
지는 6790
aus 6791
▁cet 6792
▁vos 6793
anken 6794
ondon 6795
▁double 6796
▁vent 6797
anos 6798
kra 6799
▁λόγο 6800
我们 6801
▁làm 6802
endant 6803
▁돌 6804
▁comments 6805
▁charge 6806
▁Wie 6807
▁window 6808
anu 6809
▁organization 6810
▁behav 6811
あの 6812
▁dess 6813
▁sister 6814
▁staff 6815
▁mettre 6816
▁evalu 6817
▁sarà 6818
▁jam 6819
▁played 6820
▁previous 6821
▁يا 6822
네요 6823
vas 6824
▁fully 6825
onsieur 6826
esh 6827
▁repr 6828
▁potential 6829
として 6830
▁nut 6831
▁Japan 6832
▁probl 6833
▁3, 6834
ições 6835
▁svil 6836
▁software 6837
▁immediately 6838
icles 6839
▁trze 6840
▁dazu 6841
▁destro 6842
▁sz 6843
ίσουμε 6844
unkt 6845
▁바로 6846
به 6847
▁πρά 6848
σαμε 6849
qué 6850
iber 6851
ذه 6852
▁Gree 6853
▁wollen 6854
icz 6855
▁institutions 6856
uten 6857
▁explain 6858
▁brand 6859
chn 6860
gn 6861
itable 6862
▁fisc 6863
▁strugg 6864
iced 6865
▁basic 6866
とこ 6867
▁sentido 6868
▁Sw 6869
▁ran 6870
utto 6871
▁Google 6872
pie 6873
▁Κοινοβ 6874
하면 6875
▁street 6876
▁partner 6877
▁Vielen 6878
▁reasons 6879
▁Bel 6880
vato 6881
▁conclus 6882
▁equip 6883
▁ability 6884
▁percent 6885
▁emot 6886
ris 6887
▁magn 6888
esa 6889
▁Ac 6890
▁aware 6891
▁arms 6892
▁thể 6893
adow 6894
▁bị 6895
▁goal 6896
▁manner 6897
▁thanks 6898
▁section 6899
▁questione 6900
▁Proble 6901
▁bộ 6902
▁nod 6903
ué 6904
▁categ 6905
uls 6906
▁kil 6907
▁Che 6908
▁funcion 6909
があ 6910
▁Apr 6911
hol 6912
▁announ 6913
▁parlament 6914
▁kommen 6915
▁spread 6916
entions 6917
uses 6918
met 6919
▁시간 6920
▁الش 6921
part 6922
▁différ 6923
▁mountain 6924
▁husband 6925
▁Bre 6926
▁thoughts 6927
▁gez 6928
قه 6929
▁przez 6930
▁wen 6931
▁donne 6932
aft 6933
من 6934
▁Consiglio 6935
▁vig 6936
▁shit 6937
▁kinds 6938
▁empresas 6939
▁acordo 6940
▁maintenant 6941
▁miles 6942
▁imposs 6943
▁diss 6944
▁Tu 6945
▁easily 6946
با 6947
owych 6948
▁minim 6949
▁trabajo 6950
▁button 6951
τον 6952
▁shot 6953
aker 6954
▁significant 6955
▁parents 6956
▁3. 6957
▁européenne 6958
ác 6959
lished 6960
▁sustain 6961
tar 6962
▁eh 6963
ternal 6964
▁pued 6965
기를 6966
▁grandes 6967
▁conven 6968
▁οικονομ 6969
wort 6970
▁Son 6971
▁sẽ 6972
▁response 6973
can 6974
▁hall 6975
aces 6976
▁opened 6977
▁Christian 6978
▁Mor 6979
ưa 6980
uw 6981
▁υπό 6982
▁Señ 6983
▁forces 6984
▁bear 6985
▁Entonces 6986
▁있는데 6987
ech 6988
▁수가 6989
▁serie 6990
▁dut 6991
▁كان 6992
▁enorm 6993
ña 6994
▁computer 6995
ancia 6996
▁machine 6997
lia 6998
onds 6999
▁river 7000
▁suddenly 7001
λλά 7002
▁queremos 7003
▁dav 7004
▁minus 7005
vention 7006
▁complic 7007
▁diritti 7008
bel 7009
▁asse 7010
key 7011
▁concre 7012
▁bird 7013
30 7014
▁firm 7015
▁Fre 7016
▁replied 7017
kowsk 7018
▁guer 7019
▁Ci 7020
τεί 7021
▁spend 7022
▁Tem 7023
▁weiß 7024
▁επίση 7025
▁inn 7026
▁볼 7027
όσ 7028
▁mist 7029
▁anti 7030
▁anybody 7031
▁French 7032
▁aument 7033
▁otra 7034
▁anyway 7035
ują 7036
▁relatório 7037
ικών 7038
tschaft 7039
りました 7040
▁cad 7041
▁rég 7042
▁serve 7043
λού 7044
▁vào 7045
uel 7046
iff 7047
عه 7048
śnie 7049
σταση 7050
▁returned 7051
▁rein 7052
bec 7053
inger 7054
geb 7055
▁nosso 7056
stellen 7057
えて 7058
▁lots 7059
▁lose 7060
▁recent 7061
anta 7062
πισ 7063
▁노 7064
▁đối 7065
▁quy 7066
▁eth 7067
▁imagine 7068
liamo 7069
▁Επί 7070
▁chair 7071
겠죠 7072
▁appar 7073
▁Which 7074
▁δύο 7075
▁medidas 7076
▁proprio 7077
▁dollars 7078
ôt 7079
▁comisión 7080
▁cittad 7081
ez 7082
▁influence 7083
▁excited 7084
▁named 7085
▁động 7086
▁effort 7087
▁Sa 7088
ませ 7089
ivamente 7090
rel 7091
▁proces 7092
śl 7093
▁nhiều 7094
▁candid 7095
icip 7096
▁contract 7097
▁Mc 7098
이에요 7099
ản 7100
inden 7101
gin 7102
▁freedom 7103
▁paid 7104
▁values 7105
▁catch 7106
▁pouvoir 7107
▁δικαι 7108
▁Second 7109
κο 7110
▁보면 7111
▁steps 7112
▁πρώ 7113
olit 7114
▁principal 7115
▁upd 7116
nehmen 7117
▁industri 7118
▁cuenta 7119
▁degree 7120
erse 7121
enc 7122
▁ま 7123
▁nucle 7124
uld 7125
cel 7126
▁πλη 7127
stell 7128
▁informe 7129
▁κύριε 7130
▁Sal 7131
uesta 7132
γω 7133
dat 7134
▁growing 7135
▁spl 7136
ête 7137
▁sad 7138
▁αποτε 7139
▁required 7140
▁epis 7141
rap 7142
▁heavy 7143
▁Austral 7144
▁επα 7145
▁ciudad 7146
▁personas 7147
▁waiting 7148
▁currently 7149
▁hoje 7150
▁conj 7151
▁transfer 7152
▁situação 7153
▁cuest 7154
이나 7155
▁Bom 7156
▁bag 7157
▁sá 7158
▁comer 7159
▁drop 7160
▁Want 7161
▁species 7162
ähr 7163
▁active 7164
▁veh 7165
▁zap 7166
▁drive 7167
unden 7168
▁nível 7169
▁Your 7170
▁spoke 7171
▁celebr 7172
▁vale 7173
ship 7174
▁ihm 7175
▁medic 7176
▁الج 7177
plica 7178
arm 7179
▁verg 7180
▁φο 7181
acion 7182
▁advant 7183
▁alc 7184
▁lived 7185
ounds 7186
▁favorevoli 7187
τερ 7188
▁포 7189
▁wła 7190
▁żeby 7191
fica 7192
▁surr 7193
▁열 7194
łem 7195
▁εγκ 7196
▁대한 7197
▁achieve 7198
▁geme 7199
▁waż 7200
igkeit 7201
▁お 7202
▁ram 7203
ỉnh 7204
▁manera 7205
▁Europejskiej 7206
▁sino 7207
▁raised 7208
▁reality 7209
▁ponto 7210
▁ihn 7211
▁flex 7212
▁abst 7213
σια 7214
▁교 7215
▁Fall 7216
ray 7217
enz 7218
▁consult 7219
▁load 7220
▁multiple 7221
▁Mitglied 7222
▁hou 7223
▁Acc 7224
▁phone 7225
▁weight 7226
▁Red 7227
▁다른 7228
▁sosten 7229
xto 7230
ちら 7231
なん 7232
τσι 7233
▁showed 7234
▁μία 7235
▁suppose 7236
▁vont 7237
▁μεγά 7238
ox 7239
▁square 7240
nis 7241
▁werk 7242
ederal 7243
pués 7244
▁económ 7245
change 7246
▁bul 7247
▁Cong 7248
▁gal 7249
aram 7250
ns 7251
weise 7252
▁Agora 7253
▁established 7254
wiąz 7255
▁피 7256
▁dia 7257
▁closed 7258
mas 7259
▁rapporteur 7260
▁impr 7261
▁technolog 7262
▁conflict 7263
▁얼 7264
▁zm 7265
하지 7266
▁quiet 7267
▁surv 7268
▁programs 7269
uras 7270
▁toutes 7271
cape 7272
μένο 7273
▁Πρόεδρε 7274
irth 7275
▁δε 7276
▁Als 7277
▁measures 7278
vrouw 7279
▁agenda 7280
▁toute 7281
aires 7282
기가 7283
bes 7284
wier 7285
▁orient 7286
asc 7287
▁tú 7288
▁0 7289
▁와 7290
▁perce 7291
▁jeśli 7292
▁conce 7293
▁gol 7294
▁ged 7295
▁과 7296
ño 7297
▁Ir 7298
▁nuestra 7299
umb 7300
▁atta 7301
▁الف 7302
aix 7303
▁wonderful 7304
▁relação 7305
▁día 7306
▁denk 7307
▁reci 7308
▁becomes 7309
accordo 7310
▁amer 7311
▁mensen 7312
▁điều 7313
▁겁 7314
owania 7315
▁produce 7316
▁하면 7317
▁członkowsk 7318
▁user 7319
▁outros 7320
▁Unii 7321
▁addition 7322
han 7323
akes 7324
ría 7325
▁Σα 7326
oir 7327
zent 7328
elli 7329
▁196 7330
▁hey 7331
rif 7332
λευ 7333
▁Face 7334
ập 7335
مل 7336
▁battle 7337
▁sight 7338
▁αρ 7339
ール 7340
▁campa 7341
▁gostaria 7342
▁absol 7343
▁Met 7344
erte 7345
▁그러니까 7346
▁justice 7347
▁dicho 7348
▁거죠 7349
▁included 7350
▁Thanks 7351
▁negoti 7352
▁apply 7353
▁마음 7354
halb 7355
führ 7356
▁wide 7357
▁fant 7358
▁philosoph 7359
▁má 7360
▁daughter 7361
▁Ale 7362
ると 7363
ested 7364
geben 7365
▁literally 7366
▁rien 7367
▁published 7368
▁palavra 7369
▁nostro 7370
▁joy 7371
▁Abbiamo 7372
▁brain 7373
διο 7374
▁vocês 7375
▁일단 7376
ωση 7377
▁challenge 7378
▁siem 7379
hib 7380
▁27 7381
▁Tá 7382
▁ευχαριστώ 7383
ahl 7384
▁levels 7385
▁laws 7386
eff 7387
▁volta 7388
مي 7389
▁số 7390
▁22 7391
respond 7392
اء 7393
ints 7394
▁anh 7395
emble 7396
eler 7397
▁scale 7398
▁nearly 7399
cto 7400
imp 7401
▁화 7402
▁zeggen 7403
▁cơ 7404
ya 7405
▁nasze 7406
▁sự 7407
íd 7408
riage 7409
▁compromis 7410
▁próx 7411
emen 7412
χουμε 7413
wodniczący 7414
▁track 7415
▁proposal 7416
rà 7417
▁bek 7418
▁gén 7419
▁analysis 7420
▁embar 7421
halten 7422
▁termos 7423
emás 7424
▁Pal 7425
▁colegas 7426
bles 7427
▁communities 7428
▁númer 7429
▁acab 7430
▁legisla 7431
なく 7432
iller 7433
▁killed 7434
▁join 7435
▁bod 7436
▁none 7437
▁deix 7438
▁veng 7439
▁Así 7440
▁Even 7441
▁siempre 7442
▁문제 7443
itto 7444
さい 7445
▁Ben 7446
▁possiamo 7447
▁Kon 7448
▁zoo 7449
▁διε 7450
▁ún 7451
▁syn 7452
etto 7453
▁respe 7454
▁features 7455
óg 7456
▁vel 7457
▁oui 7458
▁συνεργ 7459
▁κράτη 7460
▁zosta 7461
▁ευρωπαϊκ 7462
▁wäre 7463
cture 7464
▁정말 7465
aling 7466
zial 7467
▁stem 7468
だけ 7469
▁reven 7470
iana 7471
▁Chair 7472
ểm 7473
innen 7474
▁Lu 7475
▁teraz 7476
▁194 7477
▁Great 7478
▁standing 7479
anna 7480
amer 7481
▁gotta 7482
▁provided 7483
▁acho 7484
▁suo 7485
▁install 7486
▁aujourd 7487
blica 7488
wir 7489
▁참 7490
ussch 7491
▁chín 7492
▁performance 7493
ache 7494
▁Συμβ 7495
▁covered 7496
orial 7497
▁hosp 7498
▁confir 7499
▁sollte 7500
▁الك 7501
▁circum 7502
▁식 7503
▁계속 7504
▁trăm 7505
▁colleagues 7506
▁inqu 7507
ριο 7508
aría 7509
▁forms 7510
▁summer 7511
▁bow 7512
▁consid 7513
▁크 7514
▁데 7515
▁avant 7516
▁selbst 7517
▁fondament 7518
▁processo 7519
▁successful 7520
▁ustedes 7521
▁smo 7522
vés 7523
▁ki 7524
pace 7525
▁Somet 7526
▁Kto 7527
▁persone 7528
▁αξ 7529
▁hang 7530
▁éc 7531
▁laugh 7532
▁aren 7533
▁letz 7534
▁spos 7535
イン 7536
omme 7537
▁jeżeli 7538
▁estud 7539
▁الن 7540
▁easier 7541
▁horse 7542
▁safety 7543
ued 7544
▁igual 7545
▁Bra 7546
▁creating 7547
▁europä 7548
▁bunch 7549
▁rot 7550
▁thy 7551
▁phải 7552
▁Bas 7553
▁station 7554
▁Io 7555
▁ihre 7556
πά 7557
▁perspective 7558
like 7559
▁grup 7560
▁intér 7561
▁wet 7562
구요 7563
▁πλα 7564
iving 7565
けて 7566
ilib 7567
▁voorzitter 7568
▁schools 7569
▁cook 7570
▁tres 7571
▁strange 7572
▁psych 7573
▁permit 7574
▁separate 7575
▁Tw 7576
▁correspond 7577
▁gru 7578
uren 7579
と思います 7580
▁oil 7581
▁army 7582
▁chief 7583
▁60 7584
▁cher 7585
▁pure 7586
▁heaven 7587
oring 7588
▁περί 7589
nel 7590
▁slide 7591
▁background 7592
raid 7593
▁اح 7594
▁style 7595
ford 7596
▁Stud 7597
icher 7598
▁tenho 7599
▁έκθεση 7600
▁spent 7601
▁somewhere 7602
woord 7603
▁ange 7604
cí 7605
▁0. 7606
▁copy 7607
▁δημο 7608
▁fro 7609
▁react 7610
ịch 7611
ところ 7612
▁굉 7613
▁굉장 7614
▁lại 7615
▁vom 7616
ìn 7617
▁Há 7618
▁pani 7619
▁perman 7620
▁sweet 7621
▁alcun 7622
terior 7623
▁좋은 7624
ność 7625
▁produced 7626
illeurs 7627
▁tab 7628
▁San 7629
μαι 7630
▁minor 7631
kty 7632
▁이것 7633
▁Sta 7634
▁assess 7635
▁animal 7636
vare 7637
▁sera 7638
▁showing 7639
ket 7640
▁swo 7641
▁argument 7642
▁names 7643
▁Val 7644
▁scri 7645
▁weak 7646
하기 7647
▁elements 7648
agegen 7649
▁interes 7650
ック 7651
▁necessarily 7652
▁eles 7653
wegen 7654
νον 7655
▁stories 7656
▁autre 7657
ellt 7658
gd 7659
▁chapter 7660
▁efforts 7661
▁định 7662
▁mouth 7663
▁nhà 7664
ット 7665
iros 7666
▁punt 7667
▁rispetto 7668
▁receive 7669
▁recently 7670
▁Out 7671
ocks 7672
▁dove 7673
▁영상 7674
▁πώ 7675
▁chied 7676
▁같아요 7677
▁Africa 7678
ivel 7679
ícul 7680
nac 7681
▁μι 7682
λάβ 7683
▁rit 7684
▁presence 7685
▁map 7686
lah 7687
▁vezes 7688
▁Este 7689
▁굉장히 7690
▁theo 7691
ート 7692
bled 7693
▁번째 7694
이고 7695
▁Dec 7696
λέπ 7697
▁disci 7698
▁mam 7699
▁ví 7700
▁Chin 7701
▁처 7702
▁afraid 7703
▁devono 7704
aż 7705
▁손 7706
▁돼요 7707
ullen 7708
▁tỉnh 7709
cont 7710
▁ώ 7711
▁commercial 7712
▁kur 7713
▁activities 7714
▁잡 7715
▁strategy 7716
όσο 7717
▁choice 7718
▁chính 7719
▁τρό 7720
set 7721
▁increasing 7722
▁apenas 7723
▁grave 7724
▁vast 7725
▁mental 7726
ned 7727
into 7728
▁año 7729
▁possa 7730
رف 7731
▁간 7732
▁echt 7733
▁ambi 7734
▁Have 7735
▁unless 7736
▁outro 7737
▁jobs 7738
▁Hand 7739
▁Most 7740
▁Isso 7741
▁seine 7742
▁겁니다 7743
atro 7744
しました 7745
▁rose 7746
▁غ 7747
▁additional 7748
▁powerful 7749
▁foreign 7750
utz 7751
▁belong 7752
▁actions 7753
▁habit 7754
osse 7755
λουμε 7756
ionali 7757
▁maken 7758
▁الب 7759
imenti 7760
رك 7761
▁후 7762
how 7763
▁desen 7764
staaten 7765
▁przykład 7766
uurlijk 7767
▁toward 7768
▁extremely 7769
▁billion 7770
▁democrat 7771
▁monitor 7772
zieć 7773
▁average 7774
read 7775
▁majority 7776
σιμο 7777
▁baby 7778
▁belangrijk 7779
μάτων 7780
▁partir 7781
▁pueden 7782
▁특 7783
▁journal 7784
▁expected 7785
▁Other 7786
ystem 7787
▁Ä 7788
▁praw 7789
osto 7790
▁mac 7791
▁Member 7792
▁grant 7793
▁domin 7794
unda 7795
▁vul 7796
dro 7797
▁nước 7798
▁passe 7799
▁damage 7800
òng 7801
▁Ü 7802
▁techni 7803
▁situación 7804
▁diferentes 7805
The 7806
φαρ 7807
▁코 7808
▁كل 7809
łu 7810
▁transform 7811
▁store 7812
▁lí 7813
▁Parce 7814
▁popul 7815
▁hoy 7816
▁familiar 7817
めて 7818
▁시작 7819
▁trees 7820
▁そう 7821
▁verdade 7822
▁Ra 7823
arroll 7824
▁Tak 7825
▁cultural 7826
uir 7827
▁discut 7828
▁palabra 7829
ptember 7830
한테 7831
τήσει 7832
ته 7833
▁cuanto 7834
▁nichts 7835
▁decide 7836
bber 7837
▁dział 7838
▁juste 7839
▁refle 7840
▁nacional 7841
▁dyn 7842
▁lack 7843
▁patter 7844
rant 7845
▁gather 7846
▁dont 7847
▁establish 7848
▁appeared 7849
▁Facebook 7850
▁있을 7851
aupt 7852
▁thông 7853
▁willing 7854
▁cart 7855
▁comprom 7856
▁치 7857
▁23 7858
Qué 7859
▁apart 7860
▁importance 7861
▁organis 7862
▁journey 7863
sen 7864
▁zusammen 7865
▁μην 7866
▁religious 7867
burg 7868
iere 7869
▁surve 7870
▁διαδικ 7871
▁commit 7872
bile 7873
▁preoc 7874
▁28 7875
▁tengo 7876
time 7877
▁chain 7878
▁Another 7879
▁państw 7880
▁déb 7881
▁dic 7882
▁bright 7883
▁zurück 7884
▁trouble 7885
▁bilan 7886
▁proget 7887
▁quem 7888
veis 7889
▁vision 7890
▁cum 7891
▁crow 7892
▁animals 7893
▁realmente 7894
iqu 7895
▁cres 7896
▁shown 7897
ciw 7898
▁alto 7899
▁νο 7900
▁rent 7901
▁nuestro 7902
▁difí 7903
▁concerned 7904
sp 7905
▁aplic 7906
▁excell 7907
γα 7908
▁kommt 7909
▁vas 7910
▁donn 7911
▁hearing 7912
▁memory 7913
▁gosp 7914
▁onde 7915
▁veut 7916
▁examples 7917
▁cittadini 7918
▁genau 7919
▁θέματα 7920
opp 7921
▁프 7922
▁zas 7923
eling 7924
itute 7925
▁euros 7926
ellow 7927
quoi 7928
▁remain 7929
laim 7930
char 7931
▁topic 7932
رب 7933
▁doit 7934
inary 7935
▁eens 7936
oto 7937
▁muj 7938
σον 7939
▁Una 7940
▁coment 7941
▁사람이 7942
▁studies 7943
rees 7944
hab 7945
pli 7946
▁unsere 7947
▁Estado 7948
▁investment 7949
▁workers 7950
olar 7951
▁näch 7952
▁whe 7953
▁primer 7954
▁κάνουμε 7955
schaft 7956
tas 7957
▁reb 7958
▁αντιμε 7959
▁rev 7960
autres 7961
ável 7962
ishing 7963
▁trem 7964
età 7965
▁larger 7966
▁Miss 7967
▁criter 7968
ρυ 7969
▁weg 7970
▁campaign 7971
▁activity 7972
▁Kar 7973
▁Sra 7974
▁hora 7975
▁email 7976
▁youth 7977
▁필요 7978
▁warm 7979
▁날 7980
cience 7981
▁print 7982
▁unser 7983
▁Earth 7984
▁communication 7985
ogue 7986
▁General 7987
▁에 7988
▁possono 7989
10 7990
▁mercato 7991
▁rank 7992
▁stabil 7993
▁εφαρ 7994
▁balance 7995
▁numer 7996
▁stock 7997
zenie 7998
θν 7999
يد 8000
▁roku 8001
▁aplica 8002
zeit 8003
esser 8004
aled 8005
▁corner 8006
eto 8007
▁recht 8008
ρήσει 8009
ams 8010
▁sect 8011
rut 8012
istan 8013
▁bah 8014
▁glass 8015
▁cré 8016
▁가지 8017
▁crazy 8018
▁힘 8019
▁prend 8020
▁버 8021
▁Pat 8022
Union 8023
zym 8024
aint 8025
▁infrastruct 8026
▁entend 8027
μένα 8028
리는 8029
berg 8030
▁dete 8031
gele 8032
▁pouco 8033
▁toe 8034
▁potre 8035
▁thir 8036
▁conna 8037
▁después 8038
ivity 8039
▁feature 8040
에서는 8041
▁됐 8042
▁국 8043
▁죽 8044
▁mul 8045
ittel 8046
▁contrari 8047
board 8048
δει 8049
▁konk 8050
▁wyk 8051
▁certo 8052
▁목 8053
▁City 8054
▁줄 8055
▁Absten 8056
▁State 8057
▁hät 8058
▁finance 8059
▁있다 8060
▁leading 8061
▁zone 8062
πτυ 8063
▁Las 8064
▁shoot 8065
χω 8066
êt 8067
hora 8068
▁それ 8069
▁hung 8070
▁Get 8071
▁permet 8072
▁όχι 8073
▁여기서 8074
▁susp 8075
▁incor 8076
▁depend 8077
orno 8078
rate 8079
까요 8080
▁Apro 8081
▁switch 8082
▁Mi 8083
▁ost 8084
▁birth 8085
▁agrade 8086
▁smaller 8087
▁δηλαδή 8088
▁compl 8089
▁challenges 8090
omas 8091
wend 8092
▁institu 8093
annt 8094
▁κάποια 8095
▁Air 8096
izioni 8097
▁europejsk 8098
▁race 8099
AT 8100
cos 8101
▁γίνει 8102
gue 8103
▁Progr 8104
▁blij 8105
▁Mrs 8106
▁Many 8107
▁Did 8108
▁tir 8109
▁var 8110
▁lock 8111
▁broken 8112
iare 8113
kn 8114
▁명 8115
▁rod 8116
▁500 8117
▁Ét 8118
μενο 8119
▁nguy 8120
▁spect 8121
▁sytu 8122
▁math 8123
vece 8124
sz 8125
rir 8126
auen 8127
▁forgot 8128
▁travail 8129
▁impossible 8130
φή 8131
occup 8132
▁aper 8133
▁David 8134
κή 8135
ader 8136
otto 8137
udes 8138
μέλη 8139
▁tổ 8140
cribe 8141
ois 8142
▁zak 8143
vens 8144
▁folks 8145
▁sare 8146
▁rain 8147
enen 8148
., 8149
▁변 8150
▁teaching 8151
êtes 8152
▁Cour 8153
▁본 8154
▁czas 8155
organ 8156
たち 8157
▁religion 8158
▁Ko 8159
▁john 8160
ago 8161
▁weap 8162
▁Russia 8163
▁prev 8164
schied 8165
▁electric 8166
wno 8167
▁sû 8168
▁لل 8169
▁bastante 8170
▁수도 8171
ạt 8172
▁increased 8173
▁ώστε 8174
ρών 8175
▁τέτο 8176
▁title 8177
urre 8178
▁iets 8179
atto 8180
▁hi 8181
▁terrible 8182
ać 8183
▁Υπάρχ 8184
isme 8185
öff 8186
▁tháng 8187
AC 8188
elled 8189
bour 8190
▁많은 8191
çon 8192
▁στό 8193
▁dad 8194
▁lift 8195
▁cours 8196
▁largest 8197
▁sounds 8198
▁papel 8199
▁apoy 8200
▁sand 8201
っぱ 8202
▁speech 8203
isco 8204
▁Sm 8205
▁끝 8206
▁sang 8207
いました 8208
▁λε 8209
idents 8210
under 8211
▁Gen 8212
▁pieces 8213
rab 8214
▁dw 8215
▁Mart 8216
oms 8217
▁revis 8218
▁fon 8219
▁σημε 8220
▁partie 8221
cles 8222
▁dimens 8223
▁critical 8224
▁μετά 8225
▁sick 8226
▁placed 8227
▁acad 8228
tered 8229
amiento 8230
▁Αν 8231
▁unique 8232
▁vier 8233
dzie 8234
▁foram 8235
ereich 8236
▁stress 8237
▁session 8238
▁Ple 8239
▁pray 8240
craft 8241
udar 8242
▁Deus 8243
▁rol 8244
거나 8245
▁Αλλά 8246
▁verl 8247
▁tutte 8248
▁sous 8249
▁nobody 8250
▁desarroll 8251
ấp 8252
ません 8253
▁dej 8254
bbero 8255
σμα 8256
▁đầu 8257
▁πραγμα 8258
▁loved 8259
▁compos 8260
▁effects 8261
▁Conselho 8262
▁exerc 8263
ρέπει 8264
erk 8265
▁leaving 8266
▁parti 8267
▁κάποι 8268
nung 8269
uge 8270
처럼 8271
zus 8272
▁거야 8273
▁demonstr 8274
▁article 8275
▁Poi 8276
▁점 8277
urt 8278
▁Oui 8279
rows 8280
▁crois 8281
▁giá 8282
▁tiế 8283
▁δυνατ 8284
▁vac 8285
▁vorrei 8286
▁peux 8287
▁wit 8288
▁seguir 8289
▁parties 8290
▁يع 8291
だった 8292
▁library 8293
lands 8294
▁emer 8295
▁eigh 8296
▁4. 8297
▁vụ 8298
▁essentially 8299
volv 8300
▁natuurlijk 8301
ounded 8302
▁worry 8303
▁inici 8304
▁anx 8305
▁maior 8306
▁honor 8307
▁vidé 8308
arc 8309
▁assez 8310
▁secondo 8311
▁bisogna 8312
▁grew 8313
▁bốn 8314
▁pic 8315
latego 8316
▁sabe 8317
Europa 8318
▁aquilo 8319
othes 8320
▁difícil 8321
▁frag 8322
▁αγο 8323
▁maxim 8324
▁finding 8325
▁Nach 8326
ichten 8327
▁House 8328
▁종 8329
▁graph 8330
▁adesso 8331
▁programa 8332
yect 8333
staten 8334
리를 8335
すご 8336
ening 8337
▁thời 8338
▁tel 8339
▁presentation 8340
ãos 8341
cę 8342
▁Temos 8343
iteit 8344
▁experiment 8345
▁avoid 8346
hum 8347
▁اي 8348
▁grupo 8349
▁해야 8350
قد 8351
▁stopped 8352
esterd 8353
▁connected 8354
▁야 8355
andon 8356
▁premier 8357
tained 8358
▁Elle 8359
▁conserv 8360
▁komen 8361
じゃない 8362
▁속 8363
▁estoy 8364
κρα 8365
▁muchas 8366
▁اخ 8367
▁details 8368
자가 8369
▁girls 8370
▁양 8371
▁err 8372
▁scen 8373
▁multi 8374
▁들어가 8375
▁ανθ 8376
γραμ 8377
▁expression 8378
▁mode 8379
esome 8380
▁beso 8381
icien 8382
▁fresh 8383
▁Gre 8384
▁περιο 8385
vember 8386
uite 8387
▁purs 8388
kken 8389
▁independent 8390
ικού 8391
accord 8392
▁benefit 8393
▁찾 8394
▁타 8395
ragen 8396
esterday 8397
vano 8398
owie 8399
▁primeiro 8400
▁rom 8401
▁caught 8402
ortunately 8403
rowad 8404
éta 8405
▁아이 8406
▁alguns 8407
▁hội 8408
▁Republic 8409
ائ 8410
attutto 8411
έν 8412
δύ 8413
▁married 8414
▁Προ 8415
▁quiero 8416
▁βο 8417
▁Mac 8418
off 8419
ppen 8420
▁jako 8421
▁Muchas 8422
▁transl 8423
▁governo 8424
▁jeden 8425
▁core 8426
▁conscious 8427
zych 8428
▁construct 8429
âu 8430
▁같이 8431
▁technical 8432
▁ought 8433
▁entered 8434
lez 8435
▁الص 8436
ums 8437
τικών 8438
▁derechos 8439
▁macht 8440
▁sopr 8441
▁Está 8442
▁liqu 8443
▁fellow 8444
lem 8445
▁χώρα 8446
▁quadro 8447
▁limited 8448
▁대해서 8449
5% 8450
▁framework 8451
ảng 8452
λημα 8453
▁되어 8454
▁pyt 8455
▁ox 8456
▁Wel 8457
φορε 8458
uzione 8459
amment 8460
▁UK 8461
▁weit 8462
▁interact 8463
▁erg 8464
▁occasion 8465
▁colleghi 8466
▁zg 8467
fü 8468
▁agen 8469
▁número 8470
▁existe 8471
▁competen 8472
▁heat 8473
▁script 8474
owy 8475
ότι 8476
▁allows 8477
▁parlement 8478
aden 8479
▁gemacht 8480
▁Unie 8481
▁task 8482
▁leader 8483
▁passion 8484
ồi 8485
άσει 8486
▁الد 8487
icit 8488
▁cier 8489
▁ancient 8490
▁betre 8491
ding 8492
▁Germany 8493
εκρι 8494
aban 8495
▁zwischen 8496
onorevole 8497
▁grazie 8498
orzyst 8499
än 8500
▁II 8501
▁trata 8502
▁κοινων 8503
▁róż 8504
▁intent 8505
▁gab 8506
▁것을 8507
▁Pri 8508
▁algunos 8509
φε 8510
▁prendre 8511
▁circumst 8512
▁وت 8513
▁Aug 8514
▁qued 8515
▁adopted 8516
amin 8517
êu 8518
▁sposób 8519
ision 8520
▁parler 8521
ov 8522
▁επίπ 8523
oper 8524
▁dall 8525
▁تع 8526
▁thro 8527
▁alleen 8528
▁estim 8529
ánd 8530
▁quella 8531
In 8532
▁specifically 8533
قي 8534
▁regist 8535
▁aliment 8536
ième 8537
▁funding 8538
▁shape 8539
▁pleasure 8540
ização 8541
▁advantage 8542
ower 8543
▁discrim 8544
▁chciał 8545
のが 8546
▁prepared 8547
▁legislation 8548
▁luck 8549
ária 8550
vos 8551
▁dispon 8552
▁뒤 8553
▁appreciate 8554
χαν 8555
▁vois 8556
▁afterno 8557
ắc 8558
▁appropri 8559
aff 8560
보다 8561
▁회 8562
stüt 8563
きます 8564
けれ 8565
▁espa 8566
▁option 8567
▁haber 8568
▁promis 8569
▁편 8570
hin 8571
▁méd 8572
olic 8573
rier 8574
▁중요 8575
▁tradition 8576
▁invece 8577
ufact 8578
μιουργ 8579
▁camera 8580
▁organizations 8581
▁emb 8582
スト 8583
▁captain 8584
onom 8585
▁muchos 8586
▁drei 8587
▁표 8588
▁sequ 8589
▁parliament 8590
▁rise 8591
▁dz 8592
▁audience 8593
rom 8594
▁neither 8595
▁violence 8596
▁Να 8597
ター 8598
ισμού 8599
▁supply 8600
▁nivel 8601
▁dijo 8602
▁Präs 8603
▁spring 8604
▁bringing 8605
▁Mitgliedstaaten 8606
βάλ 8607
▁dirett 8608
yal 8609
▁Israel 8610
▁σω 8611
ってる 8612
▁hành 8613
のか 8614
δέ 8615
▁sociale 8616
▁środ 8617
▁promot 8618
ellement 8619
ào 8620
▁Committee 8621
▁alcuni 8622
▁description 8623
▁ellos 8624
▁School 8625
▁quelques 8626
cur 8627
stenuti 8628
▁college 8629
ky 8630
ξύ 8631
▁plans 8632
▁smart 8633
▁lidstaten 8634
▁Lat 8635
▁allen 8636
▁dry 8637
▁evident 8638
▁traditional 8639
▁bigger 8640
▁UN 8641
▁thee 8642
▁motion 8643
ですか 8644
▁Sam 8645
▁Οι 8646
▁remark 8647
ços 8648
▁skills 8649
rawd 8650
▁capacity 8651
▁policies 8652
▁sollten 8653
orgen 8654
으니까 8655
anish 8656
▁autres 8657
▁fucking 8658
▁humanos 8659
▁Teil 8660
كون 8661
▁tinha 8662
zel 8663
zys 8664
▁Europeo 8665
wers 8666
unci 8667
agram 8668
▁veces 8669
رو 8670
▁wz 8671
▁bou 8672
▁sistem 8673
▁adopt 8674
▁favorite 8675
냐면 8676
izzazione 8677
gment 8678
▁highly 8679
łą 8680
▁στοι 8681
▁Consejo 8682
owane 8683
ήτηση 8684
▁carbon 8685
▁influen 8686
▁돈 8687
▁역 8688
▁decisions 8689
vin 8690
omin 8691
▁συγκεκρι 8692
▁soprattutto 8693
▁changing 8694
▁march 8695
ião 8696
▁ended 8697
▁decid 8698
▁chúng 8699
▁entrepr 8700
▁interview 8701
▁expand 8702
▁eventually 8703
▁options 8704
▁neut 8705
▁πλαίσ 8706
▁shouldn 8707
▁estou 8708
▁τροπολογ 8709
っている 8710
▁Rom 8711
▁ακό 8712
▁formed 8713
▁conver 8714
▁critic 8715
▁flu 8716
κει 8717
▁Bet 8718
▁imper 8719
▁appoint 8720
▁nelle 8721
▁dress 8722
くだ 8723
ulo 8724
▁chỉ 8725
▁xu 8726
▁Aqu 8727
▁expert 8728
▁Next 8729
▁Χ 8730
▁geze 8731
▁Thema 8732
σαν 8733
▁statement 8734
▁authority 8735
▁club 8736
▁Two 8737
▁holding 8738
▁especial 8739
▁nay 8740
▁coloc 8741
▁Señor 8742
▁afternoon 8743
aper 8744
이라 8745
isas 8746
oz 8747
يها 8748
▁haya 8749
ualmente 8750
cimento 8751
onia 8752
▁가지고 8753
▁regol 8754
▁wp 8755
▁gehen 8756
▁Church 8757
▁σχέση 8758
▁counter 8759
▁새 8760
▁debat 8761
▁importantes 8762
oken 8763
▁manifest 8764
issions 8765
χεί 8766
▁Const 8767
έβ 8768
▁운 8769
عل 8770
▁status 8771
υσ 8772
▁listening 8773
▁Olha 8774
▁anymore 8775
τρα 8776
▁Om 8777
▁proyect 8778
abei 8779
▁desire 8780
▁mio 8781
nam 8782
▁4, 8783
▁shut 8784
▁slowly 8785
▁responsible 8786
rian 8787
▁torn 8788
▁uwag 8789
▁présent 8790
ppo 8791
▁conduct 8792
▁helped 8793
▁nostri 8794
arsi 8795
▁standards 8796
▁έτσι 8797
▁enemy 8798
▁March 8799
▁kw 8800
▁panel 8801
感じ 8802
μένη 8803
ạo 8804
▁phát 8805
▁direitos 8806
▁Cre 8807
がある 8808
▁Jahr 8809
▁attend 8810
öglich 8811
▁helps 8812
▁Kolle 8813
▁아무 8814
▁connection 8815
▁côté 8816
▁irgendwie 8817
▁designed 8818
▁δημιουργ 8819
▁stret 8820
▁완 8821
▁thực 8822
▁falta 8823
려고 8824
μερα 8825
ER 8826
▁quốc 8827
▁Pod 8828
▁voll 8829
▁nunca 8830
▁δούμε 8831
ποί 8832
rari 8833
▁career 8834
bres 8835
▁Mil 8836
▁district 8837
ôn 8838
▁remind 8839
dire 8840
sze 8841
しま 8842
τούν 8843
ael 8844
ieurs 8845
genommen 8846
▁request 8847
cr 8848
▁mostly 8849
▁samen 8850
beiten 8851
▁schön 8852
▁skin 8853
▁bat 8854
▁cities 8855
cement 8856
▁oggi 8857
▁crime 8858
agli 8859
▁esos 8860
▁opening 8861
▁cort 8862
▁그런데 8863
▁funds 8864
▁tijd 8865
ότητε 8866
▁franc 8867
▁calling 8868
▁profession 8869
▁déf 8870
▁Afric 8871
▁described 8872
ienie 8873
▁jaar 8874
▁الخ 8875
▁programma 8876
▁More 8877
▁Europäischen 8878
▁Cap 8879
aggio 8880
▁Janu 8881
▁형 8882
▁bilancio 8883
▁rappres 8884
▁oportun 8885
▁highest 8886
▁incred 8887
▁fla 8888
enso 8889
▁kein 8890
▁knowing 8891
ività 8892
▁medio 8893
gers 8894
enia 8895
▁posso 8896
stood 8897
icamente 8898
▁لي 8899
cker 8900
▁worse 8901
▁chuy 8902
▁located 8903
▁τρόπο 8904
▁Today 8905
▁credit 8906
▁segundo 8907
▁display 8908
▁rare 8909
▁remained 8910
iring 8911
hos 8912
▁ain 8913
▁όταν 8914
▁forest 8915
▁overall 8916
▁Chinese 8917
▁26 8918
▁Canada 8919
▁elim 8920
는데요 8921
▁presiden 8922
▁attra 8923
▁solutions 8924
▁System 8925
▁직 8926
cken 8927
ört 8928
▁reject 8929
▁emend 8930
istics 8931
▁Please 8932
▁realize 8933
ctober 8934
▁mình 8935
에도 8936
▁families 8937
▁lors 8938
اد 8939
▁senza 8940
▁traff 8941
▁θεω 8942
▁optim 8943
▁thi 8944
▁Hier 8945
▁While 8946
▁「 8947
▁Over 8948
▁realiz 8949
στά 8950
▁Energ 8951
▁Black 8952
▁caused 8953
▁September 8954
وق 8955
òn 8956
▁Ά 8957
▁materials 8958
▁relativamente 8959
agne 8960
▁unit 8961
▁bless 8962
▁release 8963
▁tuy 8964
▁hell 8965
▁만들어 8966
▁volume 8967
▁딱 8968
▁voit 8969
▁altre 8970
▁카 8971
arbeit 8972
▁belief 8973
▁políticas 8974
▁opportunities 8975
▁Aut 8976
▁Budd 8977
oren 8978
φάλ 8979
▁doct 8980
iben 8981
▁jedn 8982
▁하겠습니다 8983
ursos 8984
にも 8985
▁East 8986
▁otherwise 8987
▁επιχει 8988
▁współ 8989
zczeg 8990
▁따라 8991
ichter 8992
ijn 8993
리가 8994
usive 8995
▁dever 8996
▁principle 8997
▁sources 8998
▁dopo 8999
▁hopefully 9000
night 9001
▁rig 9002
▁보이 9003
▁zag 9004
▁shar 9005
IS 9006
▁Sol 9007
▁것은 9008
▁États 9009
▁manufact 9010
▁links 9011
▁significa 9012
▁village 9013
isen 9014
▁눈 9015
▁tempor 9016
▁Vol 9017
▁nav 9018
▁causa 9019
anze 9020
▁있어 9021
bier 9022
▁yesterday 9023
anow 9024
▁purch 9025
▁evil 9026
▁giust 9027
▁começ 9028
▁dys 9029
▁áre 9030
rum 9031
이라는 9032
▁엄 9033
▁sides 9034
bly 9035
▁coopera 9036
▁nghìn 9037
▁큰 9038
▁Very 9039
によ 9040
υβ 9041
▁ella 9042
▁μεταξύ 9043
▁trường 9044
▁Kom 9045
CO 9046
▁constru 9047
▁sharing 9048
▁objetivo 9049
ślę 9050
▁costs 9051
▁행 9052
▁zien 9053
▁그거 9054
▁boys 9055
リー 9056
▁γε 9057
▁trung 9058
▁served 9059
ardo 9060
▁sicher 9061
lik 9062
sa 9063
▁Nos 9064
▁jamais 9065
▁Count 9066
▁가장 9067
▁ital 9068
▁IS 9069
urezza 9070
▁daily 9071
▁kij 9072
▁moon 9073
lung 9074
ój 9075
▁neste 9076
änder 9077
inst 9078
appe 9079
▁settore 9080
pad 9081
▁lou 9082
▁cooperation 9083
▁dov 9084
ências 9085
nder 9086
▁August 9087
▁hate 9088
arten 9089
▁Cu 9090
▁هو 9091
rative 9092
jekt 9093
▁huy 9094
▁responsibility 9095
▁internal 9096
ilig 9097
▁comunque 9098
νώ 9099
ộc 9100
▁その 9101
ằng 9102
▁uses 9103
▁procedure 9104
▁portanto 9105
▁fab 9106
orter 9107
ju 9108
▁finished 9109
▁vrai 9110
▁entirely 9111
▁deput 9112
ệnh 9113
▁regions 9114
▁ice 9115
▁estaba 9116
▁wear 9117
▁winter 9118
ded 9119
▁authorities 9120
▁zullen 9121
▁geben 9122
▁Czy 9123
iett 9124
▁trzeba 9125
▁Φ 9126
▁iron 9127
▁laid 9128
▁fighting 9129
▁snow 9130
ρική 9131
gypt 9132
ήμερα 9133
▁forte 9134
▁assign 9135
▁wissen 9136
antal 9137
▁Den 9138
▁vend 9139
▁Off 9140
▁diret 9141
▁proceed 9142
▁되고 9143
▁murder 9144
▁Πα 9145
▁był 9146
the 9147
▁archite 9148
▁politique 9149
hy 9150
▁coast 9151
itial 9152
ども 9153
▁medical 9154
yez 9155
bling 9156
θηκε 9157
▁krij 9158
weg 9159
rá 9160
▁walking 9161
▁moral 9162
▁objetivos 9163
▁includes 9164
▁International 9165
▁scene 9166
▁الذ 9167
▁mówi 9168
رج 9169
atre 9170
icio 9171
omo 9172
▁Alex 9173
χό 9174
▁helping 9175
viamente 9176
▁personnes 9177
▁było 9178
χύ 9179
▁Ukra 9180
▁shared 9181
▁discovered 9182
▁stone 9183
▁obst 9184
tanto 9185
▁matters 9186
▁accomp 9187
γρά 9188
▁χα 9189
▁Amend 9190
▁paese 9191
osh 9192
ため 9193
oty 9194
んですけど 9195
▁prove 9196
▁filled 9197
▁심 9198
ented 9199
▁released 9200
▁TV 9201
▁constant 9202
ault 9203
▁collection 9204
ieron 9205
▁jun 9206
이다 9207
▁thick 9208
▁individuals 9209
▁هذه 9210
eron 9211
▁users 9212
▁proposed 9213
▁federal 9214
▁colega 9215
▁cod 9216
▁초 9217
▁planet 9218
urer 9219
▁believed 9220
▁sûr 9221
▁tran 9222
▁갖 9223
▁mé 9224
▁essay 9225
▁keeping 9226
oles 9227
▁zelf 9228
▁hub 9229
ίκ 9230
icios 9231
▁totally 9232
▁애 9233
▁font 9234
▁rail 9235
▁κάνει 9236
▁Hum 9237
▁paar 9238
▁đây 9239
▁Sat 9240
▁harm 9241
▁edge 9242
▁génér 9243
▁conseguir 9244
ξουμε 9245
▁existing 9246
▁Qual 9247
▁lev 9248
ziała 9249
▁toen 9250
▁κατάσταση 9251
▁rul 9252
essen 9253
سم 9254
▁Ρ 9255
▁grat 9256
▁hablar 9257
vely 9258
▁lands 9259
enie 9260
▁보시면 9261
▁αποφ 9262
ES 9263
▁cose 9264
▁elev 9265
▁reference 9266
▁notes 9267
▁libert 9268
▁Internet 9269
▁mulher 9270
▁fixed 9271
▁possibly 9272
gende 9273
▁biggest 9274
ativas 9275
what 9276
▁Danke 9277
▁east 9278
kom 9279
eper 9280
▁aspects 9281
ench 9282
urance 9283
▁응 9284
▁planning 9285
▁finish 9286
▁vedere 9287
▁이상 9288
▁phase 9289
▁spiritual 9290
▁χω 9291
ような 9292
▁weird 9293
▁Πρέπει 9294
▁đang 9295
▁Hist 9296
▁infrastructure 9297
▁utilizz 9298
gesch 9299
▁Num 9300
▁bord 9301
▁pierws 9302
raf 9303
▁vice 9304
▁fel 9305
ywat 9306
ulate 9307
▁χρησιμο 9308
▁ning 9309
adamente 9310
▁plen 9311
▁hợ 9312
▁questões 9313
rid 9314
▁reduce 9315
gency 9316
▁dese 9317
bito 9318
τώ 9319
▁temperature 9320
▁przedstaw 9321
▁fourth 9322
▁proto 9323
▁Quando 9324
▁금 9325
ashion 9326
▁symbol 9327
▁mai 9328
▁scientific 9329
▁Super 9330
▁waste 9331
▁diritto 9332
nell 9333
▁저희 9334
ática 9335
▁darauf 9336
open 9337
▁breath 9338
▁Τα 9339
usa 9340
τία 9341
▁congr 9342
▁Roman 9343
ổi 9344
estic 9345
▁April 9346
ように 9347
▁thousands 9348
▁views 9349
?" 9350
▁Pass 9351
▁income 9352
▁comunica 9353
▁walked 9354
▁hợp 9355
ording 9356
gru 9357
▁coisas 9358
▁sviluppo 9359
ラン 9360
▁allez 9361
▁seus 9362
▁Parlement 9363
ηρε 9364
κλη 9365
▁Jun 9366
ếu 9367
▁그게 9368
▁bell 9369
oten 9370
▁dati 9371
ください 9372
▁obiett 9373
▁High 9374
▁συζήτηση 9375
▁모든 9376
▁Colle 9377
ιστεύ 9378
▁χρή 9379
يف 9380
▁première 9381
▁gek 9382
▁Pas 9383
lagen 9384
▁γνω 9385
▁série 9386
▁depart 9387
avoir 9388
كل 9389
▁becoming 9390
ziej 9391
comm 9392
σή 9393
▁abord 9394
▁mira 9395
▁domanda 9396
▁rip 9397
▁ano 9398
▁raise 9399
につ 9400
▁αντιμετω 9401
▁klar 9402
esp 9403
▁80 9404
λαμβ 9405
▁union 9406
▁delight 9407
▁Mod 9408
▁mobil 9409
ionen 9410
ibile 9411
▁models 9412
▁professional 9413
▁dort 9414
▁προστα 9415
▁tomorrow 9416
▁Esto 9417
▁June 9418
▁vraag 9419
▁starts 9420
▁prest 9421
▁Grund 9422
▁instruct 9423
bing 9424
▁이야 9425
▁neighbor 9426
alf 9427
▁οδη 9428
▁existence 9429
▁reflect 9430
▁Jetzt 9431
▁player 9432
wel 9433
▁Indian 9434
▁ohne 9435
bio 9436
▁boat 9437
▁hàng 9438
▁guar 9439
▁veux 9440
었습니다 9441
▁Bible 9442
immt 9443
maal 9444
▁wurden 9445
▁burn 9446
▁mevrouw 9447
▁zwar 9448
▁Ihnen 9449
▁Κατά 9450
cido 9451
▁hơn 9452
▁input 9453
える 9454
heure 9455
ạm 9456
iele 9457
▁οργ 9458
▁będą 9459
▁stim 9460
▁sommes 9461
▁tratta 9462
▁Sor 9463
emment 9464
들의 9465
lip 9466
▁fonction 9467
▁brauchen 9468
▁Europeu 9469
▁없는 9470
▁nin 9471
▁메 9472
aniu 9473
esen 9474
▁rand 9475
▁millions 9476
iez 9477
▁problème 9478
ifs 9479
autre 9480
▁brit 9481
▁천 9482
▁silence 9483
▁아니라 9484
▁봐 9485
ライ 9486
▁möglich 9487
based 9488
ieli 9489
▁Green 9490
▁intens 9491
▁quelle 9492
▁rough 9493
▁αποχέ 9494
▁aten 9495
▁lud 9496
▁interpret 9497
ουλίου 9498
▁tecnolog 9499
▁stars 9500
▁older 9501
▁bele 9502
rog 9503
▁turning 9504
▁sicurezza 9505
▁enmi 9506
ίσει 9507
cean 9508
▁되면 9509
▁council 9510
▁βασ 9511
▁depuis 9512
▁root 9513
aur 9514
▁hö 9515
▁Mag 9516
issance 9517
rawdę 9518
▁Bien 9519
blico 9520
▁besoin 9521
▁! 9522
iforn 9523
atore 9524
▁Once 9525
▁beste 9526
▁natur 9527
▁beat 9528
▁November 9529
▁Phil 9530
されて 9531
NA 9532
▁ث 9533
▁poter 9534
▁còn 9535
▁mim 9536
▁ży 9537
▁preced 9538
▁때는 9539
▁classes 9540
▁compared 9541
▁episode 9542
▁sky 9543
λλον 9544
▁languages 9545
▁abandon 9546
▁parle 9547
▁developing 9548
▁gele 9549
▁είπα 9550
▁flight 9551
▁리 9552
▁persona 9553
▁principles 9554
ここ 9555
▁Rel 9556
▁syst 9557
▁parla 9558
ρίνεται 9559
▁insist 9560
▁façon 9561
▁الان 9562
とな 9563
▁casi 9564
▁Gal 9565
aah 9566
iciones 9567
▁5. 9568
▁socied 9569
antic 9570
▁pregunta 9571
ấn 9572
ود 9573
▁넣 9574
vous 9575
▁Esta 9576
▁primary 9577
atically 9578
▁Emp 9579
▁inj 9580
illi 9581
▁impress 9582
▁university 9583
▁understood 9584
gno 9585
icia 9586
▁behavior 9587
isher 9588
▁suf 9589
▁seconds 9590
▁καλύτε 9591
▁那 9592
▁aid 9593
▁materia 9594
▁Sin 9595
▁baj 9596
▁χρει 9597
pis 9598
▁hospital 9599
▁donner 9600
ville 9601
▁Cer 9602
▁lượng 9603
▁opposite 9604
mm 9605
▁colum 9606
▁평 9607
▁crise 9608
unal 9609
▁która 9610
▁empe 9611
▁llam 9612
▁nghiệ 9613
▁criminal 9614
▁Έχουμε 9615
ρακ 9616
▁detail 9617
▁dedic 9618
ception 9619
▁wealth 9620
▁hors 9621
▁plants 9622
▁grace 9623
▁January 9624
here 9625
usschuss 9626
▁κι 9627
らい 9628
▁yellow 9629
lä 9630
▁: 9631
έρα 9632
▁radio 9633
▁initial 9634
▁나는 9635
▁arrang 9636
▁excellent 9637
yczą 9638
اه 9639
▁올라 9640
▁presente 9641
▁길 9642
▁ther 9643
▁official 9644
▁sáu 9645
▁pair 9646
▁νομίζω 9647
esehen 9648
▁popraw 9649
imer 9650
rateg 9651
▁parole 9652
▁Γιατί 9653
ẫn 9654
فس 9655
▁Cam 9656
▁remains 9657
olare 9658
▁greatest 9659
▁compte 9660
▁soltanto 9661
▁verse 9662
아서 9663
▁associated 9664
▁300 9665
▁dotyczą 9666
▁inner 9667
▁regulation 9668
rated 9669
▁hen 9670
▁hyp 9671
▁χρησιμοποι 9672
▁czę 9673
▁digo 9674
▁sì 9675
▁انا 9676
▁introduced 9677
▁agreed 9678
▁solidar 9679
▁클 9680
▁Mont 9681
thoud 9682
▁altro 9683
τύ 9684
▁Rem 9685
▁tế 9686
ushing 9687
▁customers 9688
▁trick 9689
▁regr 9690
▁νομο 9691
atamente 9692
▁difficile 9693
νια 9694
▁hid 9695
wood 9696
▁environmental 9697
owej 9698
▁english 9699
▁Estamos 9700
όμαστε 9701
▁Tut 9702
▁proud 9703
▁pand 9704
▁degrees 9705
▁모르 9706
▁generation 9707
▁emph 9708
ujemy 9709
▁αντα 9710
▁ante 9711
house 9712
▁confront 9713
hington 9714
vé 9715
بر 9716
▁subscribe 9717
ibles 9718
▁Comp 9719
zlich 9720
▁στου 9721
rado 9722
▁dealing 9723
▁뭔 9724
▁wys 9725
▁Bank 9726
▁During 9727
▁denke 9728
▁feels 9729
▁December 9730
gent 9731
لام 9732
▁truc 9733
▁letters 9734
▁senhora 9735
▁musimy 9736
▁könnte 9737
▁90 9738
▁atra 9739
▁Wort 9740
▁pien 9741
▁bisogno 9742
▁images 9743
▁ذ 9744
VID 9745
▁hero 9746
γε 9747
▁Sono 9748
▁Sur 9749
▁sull 9750
▁Central 9751
▁election 9752
▁επίπεδο 9753
▁ging 9754
▁quarter 9755
▁zd 9756
▁anders 9757
▁약간 9758
▁dés 9759
▁Gl 9760
διαίτε 9761
▁membres 9762
▁Commissioner 9763
icken 9764
ifornia 9765
▁dá 9766
▁nochmal 9767
▁όσον 9768
ことが 9769
▁Australia 9770
▁외 9771
▁kont 9772
▁broke 9773
▁AP 9774
▁Frank 9775
ßer 9776
ît 9777
▁właśnie 9778
▁ak 9779
▁Obrigado 9780
▁compre 9781
▁enfin 9782
▁risult 9783
riff 9784
▁sui 9785
▁exchange 9786
▁construction 9787
▁2014 9788
▁twee 9789
▁rub 9790
▁otras 9791
▁slightly 9792
▁kick 9793
γου 9794
▁dipl 9795
▁param 9796
▁forced 9797
▁αυτού 9798
▁Paris 9799
▁flat 9800
▁corpor 9801
iny 9802
▁vão 9803
▁tomar 9804
▁replac 9805
▁rag 9806
▁objects 9807
▁Prés 9808
▁Pra 9809
γματα 9810
yz 9811
▁patient 9812
▁fruit 9813
▁finans 9814
λό 9815
▁presented 9816
▁아주 9817
ersch 9818
▁intelle 9819
▁cant 9820
▁lực 9821
pero 9822
▁100% 9823
▁Serv 9824
▁Unidos 9825
▁lit 9826
ắt 9827
▁pesca 9828
▁εγώ 9829
▁conoc 9830
▁industrial 9831
▁October 9832
aves 9833
▁manage 9834
θο 9835
وه 9836
▁marriage 9837
▁Με 9838
field 9839
▁Jah 9840
▁Arbeit 9841
▁champ 9842
▁Islam 9843
▁Ap 9844
isti 9845
▁はい 9846
▁error 9847
▁można 9848
acja 9849
▁stor 9850
▁quero 9851
▁tiếp 9852
▁deut 9853
▁conhe 9854
▁vulner 9855
▁possibilità 9856
▁κάποιε 9857
oul 9858
▁Us 9859
▁disease 9860
▁seat 9861
▁adapt 9862
▁nuestros 9863
ομισ 9864
ρηση 9865
uwe 9866
zego 9867
arlo 9868
▁Euh 9869
▁coach 9870
▁principio 9871
árias 9872
▁focused 9873
μένε 9874
ποίηση 9875
▁αγορά 9876
▁naprawdę 9877
▁false 9878
▁internacional 9879
enomen 9880
ización 9881
▁truly 9882
▁guid 9883
▁IT 9884
▁succeed 9885
▁intelligence 9886
▁resolution 9887
▁Western 9888
▁sulle 9889
iday 9890
▁stellen 9891
▁variety 9892
ριν 9893
▁채 9894
▁además 9895
▁kurz 9896
▁treatment 9897
▁방법 9898
▁À 9899
▁veramente 9900
ース 9901
▁dự 9902
▁Int 9903
▁infin 9904
▁applied 9905
▁이번 9906
ändern 9907
くな 9908
▁competit 9909
▁5, 9910
▁넘 9911
▁duty 9912
▁relation 9913
▁kid 9914
▁benefits 9915
▁possibile 9916
▁tutta 9917
▁nuclear 9918
▁encourage 9919
▁methods 9920
▁είμαστε 9921
▁nhưng 9922
▁Del 9923
▁players 9924
alia 9925
άση 9926
▁bodies 9927
zone 9928
▁gam 9929
▁leaves 9930
zyć 9931
▁Contrari 9932
iciente 9933
見て 9934
▁rum 9935
keiten 9936
▁lý 9937
▁minuto 9938
uno 9939
▁anno 9940
▁savoir 9941
▁flag 9942
▁plain 9943
aded 9944
jos 9945
▁três 9946
いく 9947
ateur 9948
▁thế 9949
ござ 9950
▁diverse 9951
θα 9952
▁beauty 9953
▁Bericht 9954
▁arrived 9955
▁sap 9956
▁afford 9957
▁formal 9958
اف 9959
▁devemos 9960
▁tells 9961
▁ents 9962
▁declar 9963
▁Wer 9964
やって 9965
cut 9966
atique 9967
mine 9968
▁advice 9969
ält 9970
cific 9971
▁grab 9972
▁extent 9973
oking 9974
▁powers 9975
▁reve 9976
cj 9977
▁frente 9978
▁Enth 9979
▁ει 9980
▁weather 9981
まあ 9982
▁skill 9983
▁passer 9984
▁먼 9985
úc 9986
▁quot 9987
ös 9988
πι 9989
▁Pet 9990
▁novo 9991
▁joined 9992
▁dynam 9993
▁jack 9994
▁wol 9995
▁instant 9996
▁Tenemos 9997
▁친 9998
▁mud 9999
▁motiv 10000
▁banc 10001
iga 10002
▁fondo 10003
μένου 10004
▁Bür 10005
agon 10006
▁Center 10007
▁encontrar 10008
▁marg 10009
▁Govern 10010
▁signal 10011
▁onto 10012
▁eines 10013
▁gebru 10014
▁συνεργασία 10015
ossen 10016
▁estes 10017
▁되게 10018
▁London 10019
可以 10020
ussen 10021
ciendo 10022
▁70 10023
▁certa 10024
▁desta 10025
하여 10026
▁goals 10027
▁discipl 10028
φορία 10029
▁δώ 10030
▁risol 10031
▁figures 10032
▁guarante 10033
TA 10034
▁라 10035
νού 10036
نت 10037
rad 10038
▁esas 10039
▁garden 10040
▁투 10041
ieważ 10042
▁terra 10043
▁함 10044
▁Prime 10045
▁takie 10046
▁applications 10047
している 10048
asp 10049
liwo 10050
▁shadow 10051
don 10052
▁calls 10053
δελ 10054
▁Vir 10055
▁nossos 10056
▁zro 10057
▁phòng 10058
zić 10059
▁problemi 10060
▁Tom 10061
nik 10062
beeld 10063
▁factor 10064
▁CE 10065
ämlich 10066
altro 10067
▁defend 10068
▁BC 10069
eurs 10070
prochen 10071
▁높 10072
▁Hello 10073
▁thirty 10074
没有 10075
oby 10076
▁Rad 10077
▁tão 10078
teil 10079
▁μπορέ 10080
ング 10081
▁African 10082
▁위해서 10083
▁Dar 10084
▁vit 10085
▁practices 10086
▁miglior 10087
▁예수 10088
▁kho 10089
cas 10090
▁batter 10091
cej 10092
▁Prof 10093
▁careful 10094
▁mere 10095
▁συνα 10096
▁wond 10097
▁richtig 10098
يم 10099
▁ficar 10100
▁odd 10101
ieg 10102
이죠 10103
▁valor 10104
▁gall 10105
ocrat 10106
▁라고 10107
▁제품 10108
▁Minist 10109
▁nouve 10110
▁gros 10111
▁muitas 10112
يت 10113
▁Ya 10114
▁fool 10115
▁promise 10116
▁Hall 10117
▁bought 10118
▁interests 10119
▁rim 10120
known 10121
▁solve 10122
▁bran 10123
ties 10124
illes 10125
▁fá 10126
▁chức 10127
▁distingu 10128
▁reduc 10129
▁propri 10130
جه 10131
▁rất 10132
▁Dans 10133
▁mm 10134
ễn 10135
chron 10136
▁leadership 10137
▁Hab 10138
ains 10139
ữa 10140
ór 10141
▁movie 10142
▁transition 10143
▁ξεκ 10144
▁dinner 10145
りが 10146
▁vengono 10147
ompl 10148
▁inten 10149
مر 10150
▁electr 10151
▁Dam 10152
▁gerne 10153
▁victim 10154
▁COVID 10155
▁χρηματο 10156
▁kit 10157
▁relevant 10158
▁circumstances 10159
▁toi 10160
▁dank 10161
▁empt 10162
know 10163
ständ 10164
▁보여 10165
ensa 10166
▁famous 10167
▁bá 10168
▁grav 10169
rable 10170
▁datab 10171
▁상태 10172
▁복 10173
áct 10174
▁해주 10175
▁taught 10176
지를 10177
igos 10178
▁somewhat 10179
可能 10180
▁bot 10181
▁mun 10182
eline 10183
ομισι 10184
▁Denn 10185
τημα 10186
▁essential 10187
▁corru 10188
▁fly 10189
▁implementation 10190
δότη 10191
▁confidence 10192
▁gio 10193
▁brown 10194
▁July 10195
▁dign 10196
▁bệnh 10197
▁học 10198
▁duas 10199
▁fuck 10200
▁sche 10201
▁언 10202
▁تح 10203
▁nen 10204
▁Cath 10205
▁typically 10206
θούμε 10207
▁εμεί 10208
▁algumas 10209
▁divided 10210
ント 10211
▁vogliamo 10212
▁location 10213
ME 10214
▁Enthalt 10215
▁σήμερα 10216
▁park 10217
▁一 10218
▁draft 10219
▁Een 10220
στημα 10221
▁Pues 10222
كر 10223
▁출 10224
▁cidad 10225
odo 10226
▁teacher 10227
레이 10228
▁Lin 10229
▁Van 10230
▁restrict 10231
▁Κοινοβούλιο 10232
▁houses 10233
iedy 10234
unde 10235
▁μπορούν 10236
eremo 10237
▁minutos 10238
▁ز 10239
しか 10240
▁failed 10241
ąd 10242
▁richt 10243
▁allem 10244
▁Επίση 10245
atura 10246
▁bef 10247
▁información 10248
▁Court 10249
κό 10250
▁auth 10251
▁συμβ 10252
aine 10253
▁Problem 10254
▁highlight 10255
iments 10256
▁Aí 10257
▁spoken 10258
▁Vide 10259
▁Since 10260
xit 10261
▁Peter 10262
λεί 10263
▁nhận 10264
▁valut 10265
▁ιδιαίτε 10266
▁According 10267
▁concerns 10268
prech 10269
ossa 10270
uche 10271
beits 10272
▁Person 10273
▁illeg 10274
▁reports 10275
▁definition 10276
izio 10277
▁blind 10278
▁rice 10279
▁Daar 10280
▁pross 10281
▁τελ 10282
▁ries 10283
▁éta 10284
▁διαδικασία 10285
▁Państwo 10286
▁usual 10287
▁deste 10288
phere 10289
▁supported 10290
orevoli 10291
rito 10292
▁myster 10293
▁가능 10294
▁compla 10295
▁τομέ 10296
▁funny 10297
▁Does 10298
▁tác 10299
▁nuevo 10300
▁순 10301
▁horiz 10302
etzen 10303
unes 10304
▁offered 10305
▁ine 10306
▁tag 10307
▁eing 10308
▁vidéo 10309
▁capit 10310
▁ness 10311
rukt 10312
▁Wat 10313
πτυξη 10314
▁sup 10315
▁uncle 10316
rice 10317
▁cao 10318
▁κρα 10319
▁거기 10320
▁male 10321
▁Sign 10322
▁pover 10323
▁propuesta 10324
▁Noi 10325
νία 10326
ędzy 10327
▁rispos 10328
▁noticed 10329
▁fields 10330
▁offici 10331
nten 10332
▁Jest 10333
▁heer 10334
▁Hi 10335
▁grass 10336
ómo 10337
ちゃん 10338
▁conten 10339
▁particul 10340
▁managed 10341
▁cuestión 10342
▁fiscal 10343
▁James 10344
▁creation 10345
▁zona 10346
自分 10347
▁Ty 10348
▁느낌 10349
▁Ora 10350
▁xã 10351
やっぱ 10352
▁pock 10353
▁καν 10354
▁chez 10355
imately 10356
▁exercise 10357
ionale 10358
▁encourag 10359
▁wanna 10360
▁między 10361
▁trá 10362
works 10363
▁빠 10364
▁Kr 10365
▁beim 10366
▁współpra 10367
acje 10368
▁breve 10369
▁있죠 10370
▁ü 10371
abile 10372
▁recognize 10373
τομ 10374
▁seek 10375
▁external 10376
ugi 10377
▁lung 10378
▁πρόταση 10379
rzeb 10380
inent 10381
▁versus 10382
▁businesses 10383
▁pris 10384
▁gentleman 10385
▁recursos 10386
▁vic 10387
▁Bur 10388
▁chủ 10389
▁predict 10390
ús 10391
ưở 10392
▁Greek 10393
▁répond 10394
▁William 10395
iek 10396
▁podem 10397
▁kingdom 10398
uded 10399
ーム 10400
▁führ 10401
▁وه 10402
▁Komisji 10403
ặc 10404
▁Auch 10405
fahren 10406
▁dabei 10407
▁mole 10408
▁πολλέ 10409
▁보니까 10410
ords 10411
▁这 10412
▁Πολ 10413
▁emphas 10414
CP 10415
▁αντιμετωπ 10416
不是 10417
▁ello 10418
▁plate 10419
▁persons 10420
▁êtes 10421
▁prince 10422
▁professor 10423
▁Σε 10424
▁queen 10425
▁ceux 10426
▁bảy 10427
▁gou 10428
▁neue 10429
▁advanced 10430
chien 10431
▁Präsident 10432
acters 10433
▁export 10434
vie 10435
▁hurt 10436
▁transm 10437
util 10438
▁tám 10439
▁bảo 10440
▁blow 10441
▁atmos 10442
▁perfectly 10443
▁larg 10444
▁Κομισι 10445
▁195 10446
▁σχε 10447
▁địa 10448
▁vacc 10449
laimed 10450
▁Holy 10451
▁tier 10452
▁χρόνια 10453
▁dével 10454
▁último 10455
▁landen 10456
ünd 10457
▁fashion 10458
▁pensar 10459
▁personne 10460
▁10. 10461
▁상황 10462
▁intellect 10463
▁tort 10464
▁víde 10465
▁اع 10466
들도 10467
▁illust 10468
▁visual 10469
▁awesome 10470
AS 10471
▁smile 10472
cep 10473
▁everywhere 10474
▁quali 10475
▁werde 10476
lique 10477
▁random 10478
▁whenever 10479
ffee 10480
iejs 10481
inos 10482
ưởng 10483
▁akt 10484
▁surprise 10485
ski 10486
▁outra 10487
▁gospod 10488
▁También 10489
ichte 10490
▁siano 10491
arr 10492
▁Produ 10493
σετε 10494
ほど 10495
▁meno 10496
▁shout 10497
▁sexual 10498
άζεται 10499
clock 10500
▁operations 10501
▁boa 10502
ailleurs 10503
▁curious 10504
▁sport 10505
ψει 10506
alo 10507
icians 10508
▁identify 10509
▁staat 10510
▁emerg 10511
ío 10512
▁Franc 10513
▁Voor 10514
▁attrib 10515
▁い 10516
osen 10517
elve 10518
crib 10519
▁보고 10520
asser 10521
▁Up 10522
ography 10523
▁자기 10524
aging 10525
▁disappe 10526
iverse 10527
▁τομέα 10528
できる 10529
rot 10530
▁tall 10531
▁accompl 10532
▁pourquoi 10533
▁tap 10534
▁gebe 10535
▁concer 10536
▁suas 10537
ieme 10538
▁werd 10539
ích 10540
▁ogni 10541
وف 10542
0,000 10543
▁leurs 10544
▁California 10545
▁Abs 10546
down 10547
▁drag 10548
▁device 10549
▁nämlich 10550
▁storm 10551
▁그것 10552
icy 10553
▁egg 10554
▁zaw 10555
▁feedback 10556
▁primo 10557
▁Ils 10558
▁내용 10559
▁eighteen 10560
▁gezegd 10561
▁Although 10562
▁determined 10563
▁actu 10564
▁absten 10565
▁Bu 10566
▁wspól 10567
▁συνά 10568
▁Form 10569
▁twice 10570
enew 10571
ila 10572
▁lem 10573
▁Ist 10574
▁fairly 10575
▁انت 10576
▁equilib 10577
encial 10578
▁banks 10579
zczegól 10580
▁pictures 10581
▁weer 10582
etti 10583
▁entra 10584
▁electron 10585
▁latter 10586
▁upper 10587
▁사이 10588
▁kole 10589
▁route 10590
▁fifty 10591
ozy 10592
▁providing 10593
μένων 10594
▁weet 10595
vait 10596
▁επικ 10597
▁votazione 10598
▁novel 10599
▁entrar 10600
ischer 10601
▁بت 10602
iras 10603
▁duid 10604
▁mart 10605
▁ignor 10606
▁border 10607
▁Portug 10608
ép 10609
▁ông 10610
▁competition 10611
صل 10612
の中 10613
ijk 10614
ificar 10615
▁presup 10616
▁rappresent 10617
▁먼저 10618
host 10619
▁characters 10620
czeńst 10621
▁Contra 10622
▁interessante 10623
になって 10624
▁possibility 10625
▁verm 10626
▁vuole 10627
amentos 10628
▁Bereich 10629
έβαι 10630
▁στρα 10631
▁gemeins 10632
きた 10633
ivas 10634
▁mois 10635
▁ponieważ 10636
▁reaction 10637
▁Fragen 10638
▁tick 10639
▁conference 10640
orse 10641
▁sł 10642
▁sharp 10643
▁pont 10644
ños 10645
▁harmon 10646
▁ráp 10647
▁Ευρωπαϊκό 10648
▁coin 10649
▁functions 10650
▁cells 10651
▁tarde 10652
▁sagte 10653
▁لم 10654
▁Rich 10655
▁stup 10656
ôi 10657
▁properly 10658
▁مش 10659
emat 10660
▁monsieur 10661
τισ 10662
▁agli 10663
▁komisji 10664
adt 10665
▁πρόβ 10666
▁height 10667
ôle 10668
みたい 10669
υχ 10670
oste 10671
▁observed 10672
▁escape 10673
▁items 10674
▁Já 10675
jm 10676
وي 10677
▁plut 10678
▁zat 10679
▁Zusammen 10680
▁συζητή 10681
▁tượng 10682
▁eerste 10683
▁único 10684
▁παρου 10685
▁steht 10686
▁Panie 10687
▁pin 10688
halt 10689
▁prost 10690
▁molti 10691
▁στιγ 10692
▁consent 10693
▁Open 10694
▁drew 10695
▁bread 10696
해야 10697
bruary 10698
▁lan 10699
ibilidad 10700
رض 10701
▁dy 10702
時間 10703
▁hình 10704
▁pac 10705
▁holy 10706
▁dụ 10707
▁simpli 10708
onde 10709
▁About 10710
pi 10711
▁ress 10712
▁hätte 10713
▁execut 10714
▁announced 10715
▁얼마 10716
▁Uma 10717
▁capable 10718
▁anywhere 10719
▁naz 10720
▁μέσα 10721
▁bew 10722
▁motor 10723
▁wis 10724
▁sarebbe 10725
▁ولا 10726
κέ 10727
▁gradu 10728
▁defe 10729
▁lista 10730
fico 10731
▁helpful 10732
▁depending 10733
▁reported 10734
自己 10735
▁lif 10736
▁Seg 10737
oni 10738
▁wahr 10739
▁poll 10740
▁ideal 10741
▁verschied 10742
▁trouve 10743
▁aantal 10744
▁przeciw 10745
▁cabe 10746
quier 10747
▁będziemy 10748
eller 10749
▁Mark 10750
▁certe 10751
▁outras 10752
▁είχα 10753
▁documento 10754
win 10755
▁Deut 10756
▁몇 10757
▁そして 10758
▁passage 10759
▁manière 10760
▁γίνεται 10761
▁Od 10762
▁provides 10763
▁디 10764
▁pergunta 10765
iform 10766
▁réal 10767
▁Cr 10768
▁testing 10769
▁plante 10770
cosa 10771
▁dib 10772
▁combat 10773
bym 10774
chio 10775
▁processes 10776
▁chaque 10777
▁Stre 10778
▁phương 10779
ktor 10780
▁depends 10781
▁처음 10782
▁strony 10783
iration 10784
▁letzten 10785
▁mới 10786
▁사랑 10787
▁introduce 10788
ika 10789
▁fiz 10790
▁bitte 10791
▁γεν 10792
잖아 10793
wish 10794
ará 10795
▁valid 10796
▁brings 10797
▁primera 10798
▁witness 10799
▁θέλουμε 10800
▁artif 10801
brze 10802
▁좋아 10803
road 10804
▁sieht 10805
▁Park 10806
▁Pop 10807
▁việt 10808
▁Vai 10809
▁amor 10810
προ 10811
▁dost 10812
▁closer 10813
▁zorgen 10814
▁powiedzieć 10815
ças 10816
▁Punkt 10817
▁acknow 10818
ancy 10819
▁tonight 10820
▁준 10821
▁closely 10822
▁بع 10823
▁Welt 10824
cios 10825
▁crisi 10826
▁Organ 10827
▁Sorry 10828
▁29 10829
ίνουν 10830
hren 10831
▁desenvolv 10832
▁afterwards 10833
▁appearance 10834
▁autoridades 10835
▁$1 10836
▁βλέπ 10837
ίων 10838
βαση 10839
▁England 10840
▁κόσ 10841
▁liberal 10842
▁ham 10843
ciamo 10844
ioè 10845
▁quis 10846
▁sabemos 10847
▁technologies 10848
▁pok 10849
가는 10850
asz 10851
-2 10852
▁Trump 10853
allen 10854
▁Invest 10855
▁Social 10856
εδρο 10857
▁hatten 10858
▁parent 10859
viet 10860
▁drawing 10861
orz 10862
▁Änder 10863
▁Ot 10864
orsch 10865
▁estava 10866
▁soldiers 10867
enses 10868
▁przewodniczący 10869
▁AI 10870
▁Jahren 10871
▁riv 10872
roso 10873
▁Polit 10874
▁seria 10875
▁nhất 10876
▁gender 10877
▁saved 10878
εβα 10879
▁πρω 10880
▁config 10881
%, 10882
▁Jak 10883
▁ry 10884
▁الي 10885
▁senhor 10886
스트 10887
▁herr 10888
wik 10889
▁μικ 10890
▁judge 10891
▁cul 10892
▁Ca 10893
▁George 10894
▁6. 10895
겠다 10896
▁jusqu 10897
▁package 10898
▁River 10899
ριση 10900
▁crowd 10901
itä 10902
▁gij 10903
▁νομοθε 10904
▁operation 10905
ρων 10906
▁votação 10907
▁director 10908
▁rép 10909
رح 10910
θεια 10911
nahmen 10912
▁liquid 10913
▁ax 10914
▁jakie 10915
▁wave 10916
iveness 10917
▁στιγμή 10918
▁davon 10919
▁meat 10920
▁설명 10921
▁markets 10922
▁distribution 10923
oit 10924
▁discussed 10925
▁50% 10926
▁wal 10927
ριβ 10928
ieu 10929
abilities 10930
itamos 10931
▁pleased 10932
▁갈 10933
▁guide 10934
íst 10935
▁συμφωνία 10936
▁mạ 10937
icon 10938
▁Sub 10939
▁parall 10940
▁obywat 10941
liz 10942
▁unos 10943
▁pendant 10944
▁hydro 10945
illo 10946
▁sav 10947
▁Kl 10948
αλώ 10949
▁اب 10950
chod 10951
▁silver 10952
▁tone 10953
▁tard 10954
▁quasi 10955
▁sets 10956
▁Εί 10957
▁realized 10958
καν 10959
▁sprawozdaw 10960
▁Ahora 10961
▁Vorsitz 10962
▁mogelijk 10963
▁comfortable 10964
ứng 10965
ichen 10966
PS 10967
▁register 10968
▁teams 10969
zionale 10970
uale 10971
▁partes 10972
ξε 10973
▁pew 10974
▁chemical 10975
▁possível 10976
quent 10977
▁πρόβλημα 10978
いただ 10979
▁droit 10980
▁distinct 10981
▁2015 10982
▁lange 10983
▁hardly 10984
▁Γι 10985
▁ψηφ 10986
اع 10987
▁heads 10988
▁Commun 10989
owi 10990
▁walls 10991
▁Sar 10992
▁metal 10993
▁Congress 10994
▁européen 10995
▁erw 10996
▁units 10997
été 10998
▁Fund 10999
bas 11000
forma 11001
▁worst 11002
δυ 11003
igung 11004
▁expos 11005
▁quote 11006
▁watched 11007
▁Zo 11008
▁oczywiście 11009
せて 11010
▁cycle 11011
▁ken 11012
▁Michael 11013
edeut 11014
▁πρόσ 11015
▁alive 11016
▁massive 11017
▁Really 11018
▁우리는 11019
▁Jack 11020
▁rural 11021
▁verw 11022
rás 11023
▁enjoyed 11024
▁adjust 11025
▁υπάρ 11026
τικότητα 11027
▁sout 11028
▁regarding 11029
uesto 11030
χεία 11031
▁einige 11032
▁struck 11033
▁الط 11034
▁deck 11035
▁Muslim 11036
ację 11037
▁driving 11038
λεσμα 11039
xico 11040
▁vin 11041
▁ll 11042
▁soy 11043
▁fuel 11044
▁patients 11045
▁36 11046
▁ομά 11047
aya 11048
eer 11049
▁dien 11050
▁defined 11051
▁Dob 11052
ulta 11053
ading 11054
▁adult 11055
라도 11056
insi 11057
▁bonne 11058
▁mają 11059
δότηση 11060
▁veloc 11061
box 11062
▁عليه 11063
▁qualquer 11064
χου 11065
▁output 11066
▁Gesch 11067
lica 11068
▁Sil 11069
▁consol 11070
▁somehow 11071
▁Μα 11072
▁revolution 11073
▁Dis 11074
▁산 11075
▁dropped 11076
▁Amaz 11077
▁잠 11078
▁welche 11079
▁συμμε 11080
▁experiences 11081
▁juríd 11082
γων 11083
fahr 11084
▁pud 11085
▁pill 11086
▁passing 11087
▁simplement 11088
▁Spanish 11089
▁2020. 11090
raz 11091
▁Has 11092
▁engaged 11093
▁οδηγ 11094
▁zie 11095
▁fronte 11096
εβαίω 11097
eri 11098
has 11099
▁punkt 11100
▁mett 11101
▁sinh 11102
▁racc 11103
選手 11104
λπ 11105
▁sott 11106
▁faster 11107
▁Κομισιόν 11108
osc 11109
▁κυβ 11110
irit 11111
▁Möglich 11112
▁sản 11113
▁allemaal 11114
▁derni 11115
▁narrow 11116
▁pouvez 11117
τικού 11118
▁proport 11119
▁sched 11120
▁turns 11121
▁accepted 11122
▁documents 11123
-20 11124
path 11125
upa 11126
▁facult 11127
▁qualcosa 11128
▁geld 11129
ップ 11130
▁neck 11131
▁datos 11132
anne 11133
▁προβλή 11134
▁missing 11135
▁dovrebbe 11136
▁zei 11137
▁fosse 11138
iance 11139
▁cards 11140
けれども 11141
irt 11142
ución 11143
äu 11144
▁놓 11145
▁fing 11146
▁sería 11147
こちら 11148
▁możemy 11149
▁어디 11150
avais 11151
▁31 11152
avía 11153
ặt 11154
▁ψηφο 11155
▁casos 11156
▁constitu 11157
place 11158
▁호 11159
▁Sometimes 11160
▁Twitter 11161
▁Iran 11162
▁surprised 11163
▁nuovo 11164
▁ladies 11165
▁salv 11166
ostas 11167
▁Russian 11168
▁sigui 11169
▁35 11170
▁온 11171
▁Techn 11172
▁vị 11173
alled 11174
▁remove 11175
▁poc 11176
▁secure 11177
ήσουμε 11178
▁affected 11179
▁dangerous 11180
term 11181
▁soil 11182
▁efect 11183
▁pages 11184
▁doss 11185
▁ends 11186
▁institution 11187
ơi 11188
▁shift 11189
videmment 11190
icans 11191
▁lassen 11192
▁accident 11193
▁kry 11194
gehen 11195
▁immig 11196
▁Vorsch 11197
esis 11198
▁κρί 11199
▁πό 11200
glio 11201
nement 11202
▁enfor 11203
▁isol 11204
▁tratt 11205
▁lég 11206
äft 11207
▁toàn 11208
▁fasc 11209
orr 11210
▁cav 11211
▁meio 11212
▁numa 11213
▁eating 11214
▁teachers 11215
▁committed 11216
▁Party 11217
teri 11218
▁amendments 11219
になる 11220
▁Cro 11221
▁εφαρμο 11222
lared 11223
▁vragen 11224
▁primeira 11225
▁것도 11226
▁państwa 11227
▁sales 11228
ambi 11229
▁row 11230
▁εσ 11231
▁nói 11232
▁suite 11233
▁forse 11234
▁apo 11235
▁dram 11236
▁governments 11237
enze 11238
ρούμε 11239
▁quiere 11240
▁volunt 11241
ließ 11242
だから 11243
ショ 11244
ρίε 11245
▁appears 11246
λλα 11247
jam 11248
eil 11249
▁dzie 11250
γραμμα 11251
▁związ 11252
▁utilizar 11253
▁Moi 11254
▁선택 11255
aged 11256
▁법 11257
▁salt 11258
▁vess 11259
▁가격 11260
niśmy 11261
▁recom 11262
▁causes 11263
▁shop 11264
▁ανάπτυξη 11265
▁Before 11266
▁remote 11267
▁directive 11268
iation 11269
▁seiner 11270
▁Against 11271
▁Brexit 11272
▁suffering 11273
▁sed 11274
immung 11275
izes 11276
▁dele 11277
▁첫 11278
bij 11279
▁minimum 11280
▁"' 11281
arte 11282
uster 11283
▁geb 11284
▁proof 11285
▁Mic 11286
▁hac 11287
▁cùng 11288
▁박 11289
▁practical 11290
fa 11291
▁layer 11292
▁게임 11293
anal 11294
▁vemos 11295
isi 11296
▁allora 11297
▁mee 11298
▁ov 11299
▁moments 11300
▁habr 11301
▁난 11302
▁normas 11303
▁seguridad 11304
▁instruments 11305
haupt 11306
aren 11307
▁officers 11308
cono 11309
▁proszę 11310
기도 11311
▁aura 11312
λευτα 11313
▁europei 11314
▁mieux 11315
▁rout 11316
▁relative 11317
pes 11318
▁Aqui 11319
jes 11320
▁repeated 11321
▁download 11322
gior 11323
νει 11324
▁surt 11325
▁ερώ 11326
üh 11327
ffer 11328
oline 11329
▁england 11330
okrat 11331
▁Kollegen 11332
▁nieuwe 11333
▁arrive 11334
▁paying 11335
▁marketing 11336
abord 11337
anas 11338
▁Abstentions 11339
しく 11340
ope 11341
▁biết 11342
▁rang 11343
orre 11344
حد 11345
▁moder 11346
▁Arbeits 11347
▁mencion 11348
▁현재 11349
▁parola 11350
▁concret 11351
▁equals 11352
▁Bard 11353
▁他 11354
▁native 11355
▁lut 11356
▁Lis 11357
▁enqu 11358
▁officer 11359
ushed 11360
▁handle 11361
▁assem 11362
▁ξέρ 11363
ieve 11364
▁sacrif 11365
▁appropriate 11366
▁internation 11367
قول 11368
▁gehe 11369
▁gate 11370
▁체 11371
▁democracy 11372
سي 11373
▁Pos 11374
▁texto 11375
▁politics 11376
σιο 11377
▁wiele 11378
▁aspet 11379
▁impe 11380
▁Soviet 11381
▁asp 11382
▁darf 11383
promis 11384
▁Wind 11385
▁lips 11386
▁Eso 11387
▁tight 11388
▁profit 11389
ichterst 11390
怎么 11391
▁suiv 11392
▁estado 11393
ória 11394
▁Bed 11395
igne 11396
uries 11397
▁plug 11398
▁poet 11399
ừa 11400
▁ciudadanos 11401
▁dados 11402
▁vost 11403
▁notamment 11404
▁campo 11405
▁Ur 11406
▁plusieurs 11407
▁enem 11408
▁εθν 11409
▁όλε 11410
▁große 11411
▁판 11412
ifying 11413
▁해보 11414
▁확인 11415
vada 11416
▁Dies 11417
cja 11418
uz 11419
▁sufficient 11420
▁frank 11421
▁Tal 11422
izia 11423
▁deber 11424
astro 11425
▁alguma 11426
▁nic 11427
▁courage 11428
▁alterações 11429
▁Stand 11430
▁wohl 11431
▁woord 11432
▁plutôt 11433
れば 11434
▁2013 11435
▁κάθε 11436
▁piano 11437
▁describe 11438
PA 11439
▁أ 11440
▁περισσότερο 11441
▁Sir 11442
가지 11443
▁jog 11444
▁phr 11445
▁tank 11446
▁υπηρε 11447
▁client 11448
▁avanti 11449
▁schnell 11450
endas 11451
▁cinco 11452
▁Lou 11453
▁regime 11454
▁επό 11455
▁apare 11456
λων 11457
▁κάποιο 11458
▁chegar 11459
▁συνάδελ 11460
▁يت 11461
▁Net 11462
▁segunda 11463
érer 11464
▁requires 11465
▁활 11466
なんか 11467
▁College 11468
▁chw 11469
ολου 11470
▁bekommen 11471
bere 11472
ranno 11473
ouw 11474
▁dịch 11475
äd 11476
▁venir 11477
▁Bürger 11478
▁sobie 11479
oration 11480
τουργ 11481
▁revol 11482
▁grupos 11483
▁Information 11484
▁internaz 11485
▁wszystkich 11486
▁genre 11487
▁joint 11488
▁trước 11489
▁Συμβούλιο 11490
▁Bem 11491
φαλ 11492
▁bol 11493
▁왔 11494
▁さ 11495
heiro 11496
baar 11497
▁circle 11498
▁dialogue 11499
▁Mary 11500
alen 11501
▁fondi 11502
▁Fil 11503
▁Put 11504
▁اس 11505
▁rates 11506
▁ζητή 11507
▁noise 11508
pto 11509
▁credo 11510
▁Entwick 11511
▁informazioni 11512
▁retrou 11513
▁하지만 11514
▁Stato 11515
ips 11516
mann 11517
▁reste 11518
▁ενδια 11519
ächlich 11520
▁téc 11521
▁propozy 11522
▁vole 11523
▁συνεχ 11524
▁감사 11525
▁án 11526
▁garantire 11527
▁rồi 11528
kon 11529
▁λύ 11530
▁especí 11531
▁surtout 11532
▁Att 11533
ène 11534
▁female 11535
gie 11536
ático 11537
▁działa 11538
▁Bul 11539
▁parlato 11540
iciency 11541
▁Isto 11542
▁impacto 11543
وج 11544
▁petite 11545
かり 11546
χρι 11547
oute 11548
▁ακόμα 11549
▁meglio 11550
▁employe 11551
▁funzion 11552
istes 11553
èg 11554
cza 11555
▁veget 11556
onden 11557
▁diam 11558
▁absor 11559
▁programme 11560
cą 11561
▁declared 11562
▁quien 11563
▁stesso 11564
▁orders 11565
▁liked 11566
▁voyez 11567
▁intéress 11568
▁στοιχεία 11569
▁apparently 11570
▁administration 11571
▁algu 11572
econom 11573
▁servi 11574
▁πολλά 11575
asy 11576
iest 11577
▁각 11578
▁πράγματα 11579
▁191 11580
▁fase 11581
▁ersten 11582
ード 11583
▁pied 11584
▁dụng 11585
500 11586
▁fácil 11587
▁incorpor 11588
▁Wij 11589
idi 11590
▁dibatt 11591
chter 11592
▁trabalhar 11593
▁충 11594
في 11595
bracht 11596
▁formation 11597
NG 11598
すごい 11599
▁eigenlijk 11600
▁plane 11601
▁voto 11602
φερ 11603
▁coal 11604
▁universe 11605
gged 11606
aniem 11607
atten 11608
▁항 11609
ensus 11610
▁renew 11611
▁여러분들이 11612
▁protest 11613
▁engineering 11614
cych 11615
imentos 11616
ateurs 11617
τοί 11618
ziale 11619
rift 11620
▁commen 11621
aza 11622
▁곳 11623
▁panie 11624
▁situations 11625
▁comis 11626
▁prayer 11627
▁dor 11628
uh 11629
τοι 11630
▁193 11631
▁server 11632
について 11633
▁requirements 11634
▁parag 11635
▁southern 11636
▁khá 11637
▁Quest 11638
▁społe 11639
▁Vot 11640
▁serait 11641
▁εκεί 11642
▁decre 11643
▁Washington 11644
nier 11645
oment 11646
▁quale 11647
▁valu 11648
▁아까 11649
▁adding 11650
▁którzy 11651
▁Bah 11652
▁sites 11653
された 11654
ibly 11655
▁trial 11656
öt 11657
世界 11658
wać 11659
▁answers 11660
とう 11661
▁διαφορε 11662
なが 11663
▁migr 11664
▁weren 11665
anim 11666
wy 11667
▁وب 11668
▁Madam 11669
▁articles 11670
▁Rob 11671
▁clients 11672
▁sess 11673
▁struggle 11674
äll 11675
▁February 11676
richt 11677
▁busy 11678
▁posible 11679
θώ 11680
▁define 11681
▁meses 11682
▁talks 11683
▁muitos 11684
cier 11685
cional 11686
ουλε 11687
▁Actually 11688
▁đo 11689
▁działania 11690
▁subm 11691
▁Asia 11692
▁쪽 11693
▁referred 11694
▁cup 11695
지가 11696
▁Pak 11697
▁nächsten 11698
useum 11699
▁wine 11700
unte 11701
vado 11702
lle 11703
▁wed 11704
▁empty 11705
▁아니면 11706
▁intended 11707
▁커 11708
▁chart 11709
▁birds 11710
▁elabor 11711
▁Ende 11712
▁consumid 11713
▁conto 11714
▁oft 11715
▁signor 11716
▁clothes 11717
▁desarrollo 11718
▁podcast 11719
▁orç 11720
olars 11721
▁Sk 11722
DP 11723
▁mane 11724
▁terug 11725
▁هي 11726
▁preciso 11727
ritt 11728
▁절 11729
▁score 11730
▁inse 11731
▁haver 11732
▁besides 11733
▁potrebbe 11734
▁Day 11735
▁떨 11736
▁플 11737
▁kiedy 11738
▁argu 11739
▁centre 11740
▁tea 11741
▁recover 11742
▁drawn 11743
▁dysk 11744
▁elimin 11745
▁gobier 11746
▁اللي 11747
▁나와 11748
وت 11749
▁mujeres 11750
omi 11751
▁przypad 11752
▁glob 11753
▁프로 11754
▁darüber 11755
▁batt 11756
icul 11757
▁speaker 11758
▁yours 11759
▁respeito 11760
▁trip 11761
▁troops 11762
▁implic 11763
▁똑 11764
▁sf 11765
▁EC 11766
▁τελευτα 11767
▁믿 11768
▁Vers 11769
acionais 11770
▁permett 11771
▁cidadãos 11772
▁Leute 11773
▁sod 11774
έβαια 11775
EC 11776
▁hill 11777
▁cioè 11778
▁2010 11779
owany 11780
▁County 11781
gua 11782
▁大 11783
▁ου 11784
▁παρακ 11785
▁Jul 11786
时候 11787
▁sale 11788
unft 11789
▁gospodar 11790
▁particolare 11791
▁laat 11792
▁علي 11793
▁update 11794
polit 11795
oon 11796
▁resultados 11797
▁assume 11798
altra 11799
του 11800
▁besser 11801
▁Über 11802
▁sue 11803
ciación 11804
▁assistance 11805
μένω 11806
▁qualche 11807
oseph 11808
▁milh 11809
▁Fer 11810
▁kleine 11811
▁Cy 11812
▁Ira 11813
とい 11814
▁relación 11815
▁acontece 11816
▁eld 11817
▁fault 11818
▁gustaría 11819
▁literature 11820
▁gentlemen 11821
▁phố 11822
▁Take 11823
ρίου 11824
▁ακριβ 11825
gens 11826
▁carefully 11827
▁conclusion 11828
φέρον 11829
人が 11830
▁vib 11831
▁calend 11832
▁ruolo 11833
λών 11834
▁fic 11835
▁학 11836
vement 11837
▁estrat 11838
▁mondo 11839
▁philosophy 11840
isl 11841
▁essas 11842
▁refuge 11843
▁voi 11844
keurd 11845
▁Só 11846
▁jul 11847
▁fez 11848
▁6, 11849
ância 11850
edy 11851
▁discussions 11852
▁Secret 11853
▁meetings 11854
▁unfortunately 11855
▁assessment 11856
▁것입니다 11857
▁phenomen 11858
▁요거 11859
ιε 11860
affen 11861
▁picked 11862
▁deploy 11863
▁ανθρώ 11864
untos 11865
▁differences 11866
▁Bit 11867
▁Sem 11868
▁buildings 11869
ệt 11870
▁healthy 11871
▁διαφ 11872
λώ 11873
でした 11874
▁Tout 11875
▁solamente 11876
ορ 11877
▁Ec 11878
πτε 11879
▁supporting 11880
ître 11881
▁guerra 11882
aked 11883
▁expensive 11884
▁え 11885
▁뭔가 11886
▁removed 11887
▁pytanie 11888
▁εργασία 11889
▁Roy 11890
▁mobile 11891
▁continuar 11892
▁loud 11893
ήσει 11894
▁todavía 11895
▁alternative 11896
▁trav 11897
▁tired 11898
▁accordo 11899
▁ogr 11900
▁Δη 11901
θει 11902
▁Georg 11903
▁engage 11904
▁edu 11905
▁constantly 11906
بل 11907
▁له 11908
▁Dieu 11909
▁αντί 11910
prom 11911
▁Bardzo 11912
▁Fav 11913
▁Απο 11914
▁überhaupt 11915
▁ener 11916
icious 11917
itare 11918
▁قال 11919
▁horses 11920
▁northern 11921
iler 11922
▁προσπα 11923
▁Chairman 11924
▁suggested 11925
▁einge 11926
▁approxim 11927
mark 11928
▁zeer 11929
anco 11930
▁hole 11931
▁personally 11932
▁visible 11933
▁Τώρα 11934
▁canal 11935
utes 11936
▁태 11937
▁verslag 11938
▁ros 11939
▁아닌 11940
achen 11941
zyma 11942
ulture 11943
▁Sab 11944
uent 11945
rière 11946
▁signed 11947
▁necessário 11948
▁bridge 11949
▁coffee 11950
▁προβλήματα 11951
▁ám 11952
▁khu 11953
▁gdzie 11954
edi 11955
▁stake 11956
▁purpos 11957
さんの 11958
▁istitu 11959
▁pattern 11960
▁vídeo 11961
▁identity 11962
▁equipment 11963
▁invent 11964
▁vem 11965
▁وان 11966
▁bardziej 11967
▁Questa 11968
▁Une 11969
▁french 11970
▁Trib 11971
IP 11972
▁format 11973
▁depth 11974
▁giorno 11975
▁incent 11976
▁millones 11977
ناس 11978
▁governance 11979
▁partnership 11980
▁detect 11981
▁sustainable 11982
▁mainly 11983
aga 11984
èmes 11985
▁supervis 11986
▁هنا 11987
وع 11988
ける 11989
▁raff 11990
▁earn 11991
이었 11992
▁traffic 11993
▁privile 11994
▁misure 11995
▁환 11996
▁thor 11997
本当 11998
▁όπου 11999
owego 12000
▁oso 12001
▁안녕 12002
▁department 12003
▁év 12004
ậy 12005
▁생각을 12006
▁Wow 12007
わけ 12008
▁miejs 12009
▁riun 12010
▁luch 12011
▁leads 12012
▁restaur 12013
▁maximum 12014
▁debt 12015
zelf 12016
ocked 12017
되는 12018
▁infra 12019
▁10, 12020
isser 12021
▁pracy 12022
▁advent 12023
▁nations 12024
▁divine 12025
ichterstatter 12026
grade 12027
▁souvent 12028
hnt 12029
▁mount 12030
μπ 12031
▁customer 12032
cita 12033
▁unto 12034
▁επισ 12035
▁Rat 12036
▁bond 12037
▁gard 12038
▁historical 12039
▁forty 12040
▁45 12041
wing 12042
▁όλου 12043
elante 12044
▁αυτών 12045
▁fala 12046
▁wra 12047
scheid 12048
▁lies 12049
anden 12050
구나 12051
▁wollte 12052
τάσει 12053
▁flash 12054
ύνη 12055
ψή 12056
▁diver 12057
▁remar 12058
▁zar 12059
▁merely 12060
▁partecip 12061
luss 12062
▁벌 12063
▁Op 12064
▁vero 12065
▁factors 12066
▁책 12067
▁politycz 12068
▁feelings 12069
▁resistance 12070
▁PC 12071
▁cấp 12072
immer 12073
▁πλαίσιο 12074
otti 12075
▁files 12076
iono 12077
▁innovation 12078
▁ocean 12079
▁Fort 12080
▁Plan 12081
dess 12082
erved 12083
▁europäischen 12084
▁διότι 12085
قت 12086
▁semana 12087
ishment 12088
▁Bru 12089
▁2016 12090
▁compens 12091
▁voc 12092
▁mandato 12093
▁cars 12094
▁giur 12095
▁runs 12096
▁peque 12097
▁diplom 12098
▁Pap 12099
▁explained 12100
▁cheg 12101
▁defense 12102
▁gaz 12103
▁질 12104
▁failure 12105
▁Department 12106
ituation 12107
▁goods 12108
▁여러분들 12109
▁advoc 12110
▁gruppo 12111
▁πιστεύ 12112
▁celui 12113
▁cabo 12114
▁Fol 12115
▁niem 12116
▁système 12117
▁gouvern 12118
▁sagt 12119
▁finden 12120
almente 12121
▁Buddh 12122
▁manager 12123
▁calm 12124
▁Kore 12125
▁thin 12126
▁ważne 12127
▁segurança 12128
▁conform 12129
▁Zwe 12130
ργεια 12131
fte 12132
▁uniform 12133
رت 12134
▁thị 12135
▁dimin 12136
uv 12137
▁tranqu 12138
▁meneer 12139
κειται 12140
oked 12141
aving 12142
▁ainsi 12143
▁circul 12144
▁δρά 12145
▁elementos 12146
umen 12147
▁Vou 12148
▁prec 12149
▁ride 12150
▁negli 12151
udi 12152
▁nesse 12153
▁emendamenti 12154
▁thủ 12155
▁advis 12156
ax 12157
▁Nav 12158
▁buena 12159
▁poner 12160
▁concrete 12161
ielt 12162
▁seguinte 12163
cole 12164
きました 12165
▁풀 12166
oh 12167
▁portion 12168
▁cous 12169
▁souha 12170
▁증 12171
ειτουργ 12172
▁ander 12173
astern 12174
기는 12175
▁voud 12176
▁붙 12177
urr 12178
▁όλοι 12179
▁ordered 12180
▁storage 12181
▁bare 12182
▁Jewish 12183
ảm 12184
▁milk 12185
▁auto 12186
▁conjunto 12187
▁operating 12188
▁sevent 12189
rich 12190
▁trình 12191
▁pháp 12192
▁pose 12193
يل 12194
▁Diese 12195
▁Italy 12196
▁Kind 12197
▁politiche 12198
▁pasado 12199
▁Przy 12200
▁string 12201
▁superior 12202
aliśmy 12203
▁Their 12204
▁esses 12205
ingt 12206
▁digit 12207
coin 12208
▁lon 12209
ells 12210
▁pasa 12211
▁sorts 12212
の方 12213
▁magic 12214
▁virtual 12215
▁bent 12216
log 12217
▁withd 12218
itate 12219
▁Á 12220
▁absolute 12221
▁δικα 12222
▁duidelijk 12223
▁properties 12224
rough 12225
▁2011 12226
▁nodig 12227
▁joining 12228
حه 12229
▁Eh 12230
èt 12231
erein 12232
▁발생 12233
▁mister 12234
▁seit 12235
izo 12236
▁attract 12237
stein 12238
▁intro 12239
▁Mein 12240
▁nast 12241
ruck 12242
▁πάν 12243
▁jug 12244
▁Mill 12245
▁kam 12246
▁altijd 12247
▁πλε 12248
▁invers 12249
abym 12250
▁βοη 12251
ED 12252
▁certains 12253
▁legit 12254
σμ 12255
▁이미 12256
▁Bay 12257
▁gig 12258
▁geven 12259
▁fallen 12260
▁alb 12261
erca 12262
▁province 12263
▁spin 12264
kę 12265
▁legs 12266
▁porte 12267
nymi 12268
▁stuck 12269
▁tussen 12270
され 12271
▁Far 12272
▁neutral 12273
▁explan 12274
▁Dobbiamo 12275
▁grown 12276
▁komt 12277
▁빨 12278
▁corr 12279
▁Ins 12280
aks 12281
▁cách 12282
▁gewe 12283
▁mista 12284
▁periodo 12285
▁reco 12286
▁contrad 12287
▁cohes 12288
aines 12289
▁farmers 12290
ọng 12291
gew 12292
▁dol 12293
▁υπόψη 12294
▁structures 12295
▁Foi 12296
▁이걸 12297
uma 12298
▁laten 12299
▁sorte 12300
intér 12301
issimo 12302
▁desem 12303
▁nghiệp 12304
▁viên 12305
▁disapp 12306
ération 12307
▁검 12308
enschaft 12309
nent 12310
gang 12311
▁passo 12312
▁unterstüt 12313
▁royal 12314
▁giao 12315
▁comiss 12316
▁évidemment 12317
ocr 12318
▁devices 12319
▁interv 12320
▁convin 12321
zieh 12322
▁recognized 12323
mmo 12324
▁papers 12325
ício 12326
▁owners 12327
▁nên 12328
illing 12329
▁tail 12330
▁lean 12331
▁meiner 12332
▁Ham 12333
▁bạn 12334
icing 12335
▁hundreds 12336
▁règ 12337
▁resource 12338
▁occurred 12339
▁magari 12340
▁complicated 12341
あと 12342
▁βελ 12343
▁Saint 12344
using 12345
▁beiden 12346
▁봤 12347
aan 12348
▁Plus 12349
▁ultimately 12350
▁2012 12351
▁را 12352
▁7. 12353
▁normally 12354
▁λειτουργ 12355
▁lum 12356
▁eind 12357
▁aunque 12358
▁Europäische 12359
▁stated 12360
gas 12361
▁임 12362
▁σύστημα 12363
▁solar 12364
▁kijken 12365
▁tears 12366
▁radical 12367
agit 12368
cile 12369
▁przysz 12370
▁initiative 12371
▁wondering 12372
antwort 12373
zes 12374
▁văn 12375
▁unserer 12376
cif 12377
▁votación 12378
▁التي 12379
▁colors 12380
▁aprob 12381
▁denken 12382
iders 12383
▁Egypt 12384
▁spending 12385
▁wszystkim 12386
▁completed 12387
ls 12388
▁difficulty 12389
▁divis 12390
▁universal 12391
▁τεχ 12392
ôm 12393
▁đường 12394
rios 12395
λλη 12396
venir 12397
▁relatively 12398
▁behalf 12399
▁팔 12400
indust 12401
▁fi 12402
▁Νομ 12403
endamento 12404
▁돌아 12405
▁글 12406
▁tình 12407
▁Welcome 12408
▁nostre 12409
φάλεια 12410
▁refor 12411
▁나왔 12412
▁proposals 12413
이가 12414
▁dai 12415
▁studio 12416
▁società 12417
▁madame 12418
ιώ 12419
dad 12420
▁wstr 12421
icolo 12422
▁yeaah 12423
▁energet 12424
xte 12425
▁이거는 12426
▁liên 12427
▁vita 12428
ieke 12429
ighter 12430
ienne 12431
▁kiss 12432
orith 12433
dzy 12434
▁elemento 12435
▁용 12436
ierte 12437
▁elected 12438
▁Wait 12439
▁delay 12440
▁hacia 12441
▁Monsieur 12442
▁Pot 12443
▁sow 12444
▁wym 12445
▁muchís 12446
abel 12447
▁gift 12448
▁trading 12449
eno 12450
▁ήδη 12451
▁Geld 12452
▁puedo 12453
▁whis 12454
▁Komisja 12455
▁μέχρι 12456
▁représ 12457
▁xe 12458
▁Qui 12459
▁Tre 12460
▁Madame 12461
▁Soci 12462
▁audio 12463
▁conqu 12464
thoudingen 12465
▁engagement 12466
▁loop 12467
▁Hel 12468
しょうか 12469
밖에 12470
yens 12471
▁거의 12472
▁ponente 12473
▁χρόνο 12474
▁Japanese 12475
icion 12476
ologie 12477
▁ganze 12478
▁responder 12479
▁δεί 12480
θμ 12481
▁parlare 12482
▁garantir 12483
▁32 12484
▁cow 12485
▁silent 12486
▁Make 12487
▁Richt 12488
▁Under 12489
▁Amendment 12490
▁triển 12491
▁previously 12492
▁찍 12493
然后 12494
▁gewo 12495
daje 12496
▁Abstenções 12497
iven 12498
▁avuto 12499
lais 12500
든지 12501
▁ż 12502
blo 12503
BC 12504
خل 12505
aming 12506
het 12507
▁happiness 12508
usz 12509
θυν 12510
▁μεγάλη 12511
▁같습니다 12512
chant 12513
osit 12514
▁weapons 12515
▁Bras 12516
▁opposed 12517
AP 12518
▁pedir 12519
▁진행 12520
▁elk 12521
▁preach 12522
▁suffer 12523
▁annual 12524
▁distint 12525
", 12526
unter 12527
razione 12528
▁respecto 12529
▁misschien 12530
もし 12531
▁Spirit 12532
▁sca 12533
▁gap 12534
▁krijgen 12535
▁relationships 12536
▁OK 12537
▁cảnh 12538
▁feito 12539
▁Martin 12540
▁δικαιώ 12541
ιβ 12542
illed 12543
▁vind 12544
▁vielen 12545
dz 12546
出て 12547
▁verschill 12548
しています 12549
▁mistake 12550
▁이러 12551
▁dale 12552
▁προσπά 12553
▁collè 12554
▁cancer 12555
▁Last 12556
▁temas 12557
ifications 12558
atte 12559
▁tats 12560
irm 12561
▁Som 12562
▁اذا 12563
▁flowers 12564
▁políticos 12565
▁Def 12566
▁PP 12567
▁몸 12568
▁Big 12569
▁Hen 12570
▁espero 12571
▁introduction 12572
▁mechanism 12573
▁επεν 12574
ocking 12575
▁variable 12576
▁머 12577
مع 12578
▁golden 12579
▁prices 12580
gro 12581
っています 12582
▁pounds 12583
▁contrast 12584
성이 12585
▁hide 12586
▁άλλε 12587
▁resto 12588
▁agency 12589
▁generale 12590
▁medium 12591
▁pulled 12592
▁hoch 12593
inct 12594
▁facts 12595
▁bla 12596
▁đề 12597
▁suit 12598
▁Lie 12599
▁impression 12600
▁Tor 12601
▁συνάδελφο 12602
▁Would 12603
▁économ 12604
uramente 12605
lor 12606
uri 12607
iety 12608
▁wise 12609
▁cuid 12610
▁식으로 12611
▁ψηφοφορία 12612
▁nesta 12613
γι 12614
rez 12615
fast 12616
▁exciting 12617
▁członkowskich 12618
▁compli 12619
▁angry 12620
정을 12621
▁Gar 12622
▁negoci 12623
▁Jeżeli 12624
▁práct 12625
▁punti 12626
▁smooth 12627
zed 12628
▁originally 12629
▁πληρο 12630
▁0, 12631
▁saving 12632
되어 12633
▁어느 12634
wert 12635
▁elections 12636
▁compare 12637
point 12638
▁vrouw 12639
▁dém 12640
어나 12641
했습니다 12642
▁potrzeb 12643
▁beside 12644
▁cash 12645
▁urban 12646
▁instrumentos 12647
▁자신 12648
▁Enthaltungen 12649
▁bình 12650
▁disso 12651
▁ام 12652
知道 12653
▁hebt 12654
bens 12655
▁مت 12656
▁Pers 12657
οδο 12658
▁اك 12659
▁última 12660
▁positions 12661
▁adequ 12662
▁400 12663
▁equival 12664
▁pul 12665
λέγ 12666
νηση 12667
▁tests 12668
▁somos 12669
▁테 12670
▁stands 12671
▁jeu 12672
▁aside 12673
▁dok 12674
▁ships 12675
▁맛 12676
▁advance 12677
urb 12678
éner 12679
▁obvious 12680
▁Président 12681
λία 12682
▁Mars 12683
▁lying 12684
▁poroz 12685
▁intention 12686
▁obiettivi 12687
▁components 12688
▁stos 12689
▁hele 12690
▁extraordin 12691
▁dibattito 12692
ểu 12693
▁dagegen 12694
▁milhões 12695
ệu 12696
schein 12697
▁tự 12698
やっぱり 12699
▁database 12700
▁Star 12701
▁były 12702
▁Institute 12703
▁Thomas 12704
bene 12705
▁Wię 12706
▁Ukraine 12707
▁apoio 12708
zas 12709
▁direito 12710
öl 12711
▁provin 12712
▁ensuite 12713
▁tens 12714
كان 12715
prise 12716
▁Hung 12717
▁dici 12718
▁Fam 12719
inas 12720
Europe 12721
ướng 12722
pair 12723
▁Paesi 12724
▁οργαν 12725
▁sost 12726
▁함께 12727
لب 12728
▁Θέ 12729
▁foss 12730
▁político 12731
▁hasn 12732
▁neuen 12733
▁pessoa 12734
▁이유 12735
께서 12736
▁rzecz 12737
▁selling 12738
▁Là 12739
ρύ 12740
▁hablando 12741
odes 12742
▁posizione 12743
year 12744
▁taste 12745
stream 12746
▁괜 12747
▁poverty 12748
▁nerv 12749
▁συνο 12750
▁negotiations 12751
▁δυ 12752
▁شي 12753
▁expressed 12754
▁discussione 12755
▁extreme 12756
▁positivo 12757
▁newsp 12758
ージ 12759
▁ecc 12760
▁occas 12761
ibilità 12762
と思う 12763
ancing 12764
▁alguna 12765
▁kto 12766
▁انه 12767
▁ακριβώ 12768
zig 12769
▁noble 12770
aret 12771
▁días 12772
▁regolamento 12773
▁compreh 12774
▁experienced 12775
▁öff 12776
▁negozi 12777
▁reply 12778
▁Flor 12779
▁miser 12780
▁grö 12781
▁mecan 12782
▁tenía 12783
▁zast 12784
▁nationale 12785
人の 12786
ńsk 12787
▁dific 12788
▁delic 12789
▁passar 12790
▁scholars 12791
▁با 12792
cons 12793
▁mét 12794
aris 12795
▁mnie 12796
▁꼭 12797
well 12798
πότε 12799
▁الذي 12800
▁diet 12801
▁component 12802
▁떨어 12803
▁verder 12804
▁contains 12805
▁Sun 12806
인이 12807
▁Perché 12808
wia 12809
▁lights 12810
▁escuch 12811
erst 12812
▁sát 12813
▁vient 12814
▁7, 12815
▁Kingdom 12816
▁Ans 12817
▁disk 12818
▁entsprech 12819
▁temple 12820
▁Amazon 12821
なかった 12822
▁organizz 12823
▁worship 12824
▁binnen 12825
▁fulf 12826
▁protocol 12827
▁Atl 12828
▁pointed 12829
▁eux 12830
▁Catholic 12831
▁ειση 12832
▁plaats 12833
▁Fal 12834
▁tong 12835
▁stupid 12836
▁angenommen 12837
ulated 12838
▁algunas 12839
▁maggior 12840
aco 12841
▁된다 12842
▁Kol 12843
▁gute 12844
▁lingu 12845
▁continent 12846
▁Dig 12847
▁Norm 12848
▁pool 12849
▁vì 12850
▁streets 12851
biet 12852
▁femmes 12853
▁Instagram 12854
▁gesehen 12855
irement 12856
▁reduced 12857
▁lever 12858
▁stehen 12859
▁aug 12860
▁Finanz 12861
▁phạm 12862
▁verk 12863
reland 12864
现在 12865
▁nouvel 12866
γον 12867
▁θέση 12868
▁μάλ 12869
سا 12870
▁twelve 12871
▁promote 12872
▁développ 12873
▁render 12874
aty 12875
ounding 12876
γέ 12877
▁Sel 12878
▁astenuti 12879
kehr 12880
▁exclaimed 12881
あります 12882
▁relatore 12883
해요 12884
né 12885
▁tę 12886
ppe 12887
▁navig 12888
▁devem 12889
▁Dios 12890
▁ciò 12891
▁بعد 12892
▁organized 12893
▁área 12894
▁بي 12895
ßnahmen 12896
▁sympath 12897
만원 12898
▁cerca 12899
alde 12900
▁Εγώ 12901
▁Ve 12902
χολ 12903
▁Try 12904
▁sprechen 12905
▁dop 12906
ieniu 12907
▁agradecer 12908
▁możliwo 12909
▁étaient 12910
▁últimos 12911
▁ihnen 12912
▁εμπ 12913
▁bind 12914
▁nale 12915
fel 12916
fois 12917
isia 12918
▁forever 12919
▁Ju 12920
▁interesse 12921
▁Jean 12922
▁sake 12923
usement 12924
ίζουμε 12925
▁gev 12926
▁Νομίζω 12927
cznie 12928
▁provis 12929
▁Sud 12930
going 12931
▁Jahre 12932
▁desse 12933
werk 12934
▁ιδιαίτερα 12935
orde 12936
ληση 12937
▁przyję 12938
urar 12939
δειγμα 12940
▁써 12941
πεζ 12942
▁청 12943
▁wykorzyst 12944
▁nig 12945
▁nazionali 12946
▁uwagę 12947
▁employment 12948
łam 12949
▁fals 12950
bare 12951
▁Κύρι 12952
▁więks 12953
▁founded 12954
▁foundation 12955
▁엄청 12956
نه 12957
ismus 12958
cemy 12959
▁dow 12960
rada 12961
드리 12962
oster 12963
lossen 12964
▁roof 12965
itutto 12966
uper 12967
▁plein 12968
▁progetto 12969
aca 12970
ète 12971
▁δυνατότητα 12972
ahlen 12973
▁benefici 12974
▁내려 12975
ungsant 12976
▁raison 12977
▁똑같 12978
iken 12979
▁λί 12980
▁laughed 12981
▁driven 12982
▁facing 12983
▁trouver 12984
▁ly 12985
serv 12986
▁huyện 12987
ρρί 12988
عا 12989
▁quiz 12990
▁stable 12991
▁ryn 12992
▁hombre 12993
IT 12994
▁exists 12995
mus 12996
▁volte 12997
▁Obrigada 12998
▁verte 12999
▁Vale 13000
▁kinh 13001
▁김 13002
eras 13003
▁darkness 13004
▁pourrait 13005
▁frequently 13006
▁Bus 13007
▁Both 13008
▁division 13009
▁domestic 13010
▁مح 13011
▁Ouais 13012
erta 13013
▁xuất 13014
quis 13015
▁estratég 13016
ppy 13017
▁cambio 13018
ód 13019
▁crucial 13020
يره 13021
▁numerous 13022
▁mary 13023
▁territory 13024
▁tenden 13025
▁tale 13026
▁키 13027
gence 13028
▁subt 13029
▁seinen 13030
チャ 13031
▁wenig 13032
▁konnte 13033
▁domande 13034
▁pocket 13035
▁proceso 13036
▁clin 13037
▁debe 13038
▁stronger 13039
▁São 13040
pekt 13041
στούμε 13042
▁doors 13043
stel 13044
▁Arab 13045
▁năng 13046
▁darum 13047
▁senso 13048
▁Dagegen 13049
▁suspect 13050
▁đá 13051
▁humans 13052
▁techniques 13053
isé 13054
prü 13055
▁derecho 13056
ρκ 13057
voorbeeld 13058
▁tiny 13059
▁utter 13060
▁courses 13061
anche 13062
żet 13063
▁imprese 13064
▁υπάρξει 13065
▁Glo 13066
▁besond 13067
▁2000 13068
▁Quanto 13069
▁Vert 13070
▁무슨 13071
φέρει 13072
▁vậy 13073
▁finger 13074
19 13075
▁κανεί 13076
▁questioni 13077
porte 13078
▁백 13079
ído 13080
▁Space 13081
▁Robert 13082
▁vários 13083
습니까 13084
▁proved 13085
▁destroyed 13086
▁despite 13087
▁powinniśmy 13088
▁아파 13089
▁Empire 13090
▁ontwik 13091
▁mulheres 13092
αλύτε 13093
▁quatre 13094
▁necessario 13095
▁rac 13096
▁Ali 13097
▁boss 13098
▁desper 13099
▁identified 13100
▁align 13101
▁dinero 13102
▁Army 13103
zos 13104
▁represented 13105
▁determine 13106
▁dado 13107
▁취 13108
▁Europejska 13109
▁paz 13110
▁Profess 13111
▁dust 13112
ellschaft 13113
더라고 13114
omy 13115
▁이건 13116
▁tack 13117
▁valuable 13118
▁naturally 13119
大き 13120
▁sembra 13121
▁عند 13122
▁jours 13123
▁purposes 13124
いろ 13125
▁centro 13126
ofd 13127
▁pau 13128
▁wand 13129
▁flood 13130
▁wheel 13131
▁tăng 13132
▁unknown 13133
▁livre 13134
▁fondamentale 13135
▁mou 13136
▁fantastic 13137
▁Back 13138
wet 13139
▁equation 13140
▁별 13141
▁giờ 13142
▁butt 13143
▁attacks 13144
▁opposition 13145
▁desenvolvimento 13146
▁nossas 13147
▁vehicle 13148
▁honestly 13149
▁direttiva 13150
▁Got 13151
▁bru 13152
▁falls 13153
water 13154
hed 13155
ução 13156
▁경우에는 13157
▁κανον 13158
ículo 13159
▁Seite 13160
▁Only 13161
▁decent 13162
▁falling 13163
▁theore 13164
utos 13165
onos 13166
▁records 13167
pio 13168
▁branch 13169
▁έλε 13170
▁excuse 13171
▁falou 13172
▁denen 13173
▁yield 13174
▁exhib 13175
▁친구 13176
wide 13177
▁lhe 13178
▁faces 13179
▁fid 13180
▁bout 13181
وب 13182
▁ορισ 13183
rine 13184
▁seriously 13185
ped 13186
▁로 13187
▁jas 13188
▁Dist 13189
▁linh 13190
▁années 13191
▁programas 13192
▁volt 13193
さんが 13194
▁cần 13195
etta 13196
▁Ont 13197
▁padre 13198
▁evitar 13199
▁πλευρ 13200
OS 13201
jar 13202
非常 13203
▁chron 13204
▁pandemic 13205
▁peuvent 13206
▁launched 13207
▁중요한 13208
▁orden 13209
▁cabin 13210
▁hotel 13211
▁pueda 13212
▁catal 13213
▁merci 13214
▁embargo 13215
▁bug 13216
▁thấy 13217
▁inher 13218
▁approvato 13219
ateral 13220
▁διο 13221
▁άλλο 13222
fs 13223
ιών 13224
▁acts 13225
▁goede 13226
▁maggi 13227
▁Mediter 13228
▁subse 13229
▁tatsächlich 13230
pass 13231
dem 13232
▁prac 13233
▁devot 13234
▁wszystko 13235
▁Ihr 13236
▁gdy 13237
▁femme 13238
▁efficient 13239
ốt 13240
▁Dur 13241
ことを 13242
ufen 13243
▁haciendo 13244
▁ace 13245
▁excess 13246
▁pardon 13247
▁dread 13248
▁trig 13249
▁greatly 13250
▁prow 13251
▁mixed 13252
▁전에 13253
ρόλο 13254
▁Υπάρχουν 13255
▁사람들이 13256
oltà 13257
▁effett 13258
ishop 13259
▁Rec 13260
recht 13261
▁marco 13262
▁weten 13263
ansion 13264
▁προστασία 13265
▁avre 13266
même 13267
▁되는데 13268
▁tratar 13269
سه 13270
▁finde 13271
▁sujet 13272
食べ 13273
isms 13274
γράμ 13275
▁Main 13276
▁bitter 13277
▁experts 13278
▁ngo 13279
▁Στη 13280
▁Matt 13281
上が 13282
▁아직 13283
▁split 13284
▁speakers 13285
▁strict 13286
▁mountains 13287
주는 13288
▁elles 13289
▁dlatego 13290
▁cooperazione 13291
▁strument 13292
▁realt 13293
▁διαπ 13294
▁중에 13295
られ 13296
▁encuent 13297
zimy 13298
chang 13299
▁Spiel 13300
▁aspectos 13301
▁shoulder 13302
▁recorded 13303
omed 13304
▁richi 13305
▁λάβ 13306
▁municip 13307
τηγ 13308
▁bereits 13309
▁cứ 13310
▁contrat 13311
▁interior 13312
▁dens 13313
▁stro 13314
▁saranno 13315
while 13316
phone 13317
سب 13318
gere 13319
ançar 13320
▁więcej 13321
▁judgment 13322
lage 13323
▁Daten 13324
▁Mamy 13325
orso 13326
▁monet 13327
▁signs 13328
▁justement 13329
すると 13330
ächst 13331
▁shap 13332
▁fuera 13333
▁sentence 13334
▁실제 13335
▁inizi 13336
▁깨 13337
▁concerning 13338
ców 13339
üs 13340
▁confident 13341
onio 13342
▁linked 13343
▁objective 13344
▁Mah 13345
▁chiar 13346
▁ihren 13347
▁gehört 13348
▁tài 13349
▁evolution 13350
rane 13351
▁alteração 13352
▁resultado 13353
▁tâm 13354
▁Liber 13355
▁εισ 13356
▁모습 13357
▁medi 13358
▁tough 13359
ads 13360
bla 13361
▁marry 13362
▁Unternehmen 13363
jets 13364
▁py 13365
▁artist 13366
▁Mem 13367
iędzy 13368
▁analy 13369
umes 13370
▁kons 13371
▁είπε 13372
cke 13373
wiad 13374
arian 13375
gs 13376
40 13377
▁porozum 13378
▁próp 13379
▁trot 13380
▁báo 13381
▁trị 13382
▁zaken 13383
▁nouveau 13384
▁uso 13385
▁aveva 13386
▁tính 13387
▁창 13388
▁nuestras 13389
▁업 13390
▁lớ 13391
▁konkret 13392
▁で 13393
▁podría 13394
anzitutto 13395
▁điểm 13396
▁tới 13397
▁Favorevoli 13398
ろう 13399
agu 13400
▁großen 13401
ference 13402
▁pip 13403
▁Bild 13404
ございます 13405
▁Jeśli 13406
ducation 13407
▁Sicher 13408
▁younger 13409
▁Appro 13410
▁ασφάλεια 13411
▁beings 13412
▁είχαμε 13413
▁tiền 13414
▁reden 13415
▁pert 13416
falls 13417
▁μέλλον 13418
셔야 13419
▁manten 13420
▁hidden 13421
▁ouais 13422
▁index 13423
자를 13424
▁academic 13425
▁πριν 13426
▁comport 13427
▁carrying 13428
ingly 13429
▁괜찮 13430
▁vital 13431
▁constitut 13432
IC 13433
▁wearing 13434
▁dinheiro 13435
▁medicine 13436
▁levant 13437
▁algorith 13438
rac 13439
▁DG 13440
arias 13441
▁dism 13442
▁manip 13443
▁contribution 13444
▁erste 13445
achten 13446
MS 13447
σίε 13448
uct 13449
▁reag 13450
ということで 13451
iza 13452
▁Więc 13453
▁angle 13454
▁frust 13455
▁funktion 13456
▁threw 13457
scheinlich 13458
▁lovely 13459
▁μαζ 13460
ρούν 13461
▁Rechts 13462
▁Tro 13463
ié 13464
ença 13465
▁kết 13466
▁plays 13467
▁παράδειγμα 13468
ζόμαστε 13469
▁repeat 13470
▁Jud 13471
▁lên 13472
▁Research 13473
iard 13474
▁enth 13475
▁rede 13476
▁houden 13477
▁treated 13478
geving 13479
▁Bal 13480
▁congrat 13481
▁regl 13482
▁desert 13483
nar 13484
▁advert 13485
▁う 13486
이야 13487
▁Wy 13488
▁criteria 13489
▁bor 13490
▁μεγαλύτε 13491
願い 13492
▁Play 13493
▁fica 13494
▁aumento 13495
▁Latin 13496
▁enh 13497
▁interc 13498
▁losing 13499
▁trabalh 13500
東京 13501
▁sait 13502
▁둘 13503
▁ende 13504
▁Speaker 13505
erves 13506
▁ambit 13507
▁Sing 13508
▁ath 13509
▁chosen 13510
▁Three 13511
▁2008 13512
▁2017 13513
▁obtain 13514
▁rius 13515
▁plenty 13516
▁ihrer 13517
▁fright 13518
iale 13519
▁레 13520
▁nhiệ 13521
▁jednak 13522
▁glory 13523
▁notion 13524
▁propon 13525
▁10% 13526
▁nehmen 13527
▁rising 13528
▁οποίε 13529
zung 13530
▁Video 13531
▁άλλη 13532
reek 13533
esty 13534
▁windows 13535
이지 13536
りがとう 13537
▁nécess 13538
▁topics 13539
tem 13540
يب 13541
nisse 13542
っちゃ 13543
▁혹 13544
▁één 13545
▁ερω 13546
▁london 13547
▁posição 13548
▁ears 13549
▁aquell 13550
▁Prin 13551
▁passé 13552
icks 13553
▁않는 13554
▁sugar 13555
▁consumer 13556
plan 13557
▁gì 13558
▁Situation 13559
님이 13560
▁Quem 13561
▁τόσο 13562
▁dance 13563
▁repres 13564
▁Univers 13565
▁plot 13566
▁groot 13567
och 13568
▁droits 13569
ivil 13570
▁setor 13571
▁llegar 13572
▁Bis 13573
▁είμαι 13574
▁Ros 13575
▁ζή 13576
usal 13577
▁Ken 13578
▁hes 13579
▁νέα 13580
▁servizi 13581
inty 13582
▁pue 13583
▁disappoint 13584
何か 13585
الم 13586
80 13587
nem 13588
那个 13589
▁API 13590
legen 13591
rive 13592
▁βάση 13593
ọi 13594
▁πολίτε 13595
▁possess 13596
▁Spain 13597
▁Charles 13598
▁lesson 13599
▁exer 13600
ίνη 13601
▁8. 13602
하세요 13603
ήσω 13604
peror 13605
▁autonom 13606
▁δικαιώματα 13607
▁이름 13608
heden 13609
▁ID 13610
▁Remember 13611
▁opini 13612
mat 13613
▁Program 13614
AR 13615
▁promised 13616
اني 13617
▁effectivement 13618
équ 13619
▁khác 13620
▁andare 13621
▁Science 13622
▁그죠 13623
▁fingers 13624
▁pequ 13625
▁integra 13626
▁daran 13627
γη 13628
اج 13629
▁است 13630
▁Sto 13631
▁strongly 13632
▁prosper 13633
▁Eine 13634
▁allí 13635
▁infect 13636
estra 13637
aste 13638
▁قد 13639
▁만약 13640
▁dude 13641
otic 13642
사를 13643
▁innoc 13644
zug 13645
▁fen 13646
▁crown 13647
▁encoun 13648
트를 13649
▁Americans 13650
theless 13651
▁largely 13652
greg 13653
▁enorme 13654
ấu 13655
▁incom 13656
▁συμπε 13657
kers 13658
▁tum 13659
!" 13660
んですね 13661
▁Vi 13662
ilder 13663
▁vect 13664
quel 13665
▁creative 13666
スタ 13667
▁έχω 13668
▁γρα 13669
▁buying 13670
▁groß 13671
▁dziękuję 13672
▁strike 13673
▁IP 13674
▁europeu 13675
wodnicząca 13676
ämp 13677
▁colocar 13678
▁award 13679
▁agencies 13680
▁missed 13681
▁agriculture 13682
▁ordinary 13683
ograf 13684
▁eene 13685
▁commitment 13686
▁scar 13687
▁verso 13688
▁marché 13689
▁decía 13690
▁dollar 13691
▁nào 13692
▁παι 13693
▁Associ 13694
▁público 13695
▁gods 13696
▁curios 13697
▁πραγματικά 13698
ración 13699
▁hoping 13700
▁reli 13701
▁ات 13702
上げ 13703
▁Group 13704
▁물론 13705
▁않았 13706
▁한국 13707
issent 13708
▁ここ 13709
etten 13710
eral 13711
rale 13712
▁sob 13713
▁rejo 13714
▁acord 13715
▁coord 13716
▁housing 13717
▁pale 13718
▁wisdom 13719
▁Era 13720
norm 13721
▁CP 13722
▁gast 13723
▁Tag 13724
óa 13725
▁nội 13726
▁rib 13727
eping 13728
▁dirig 13729
▁demasi 13730
éro 13731
▁fancy 13732
▁συνθή 13733
▁confirm 13734
▁rejected 13735
لق 13736
▁proyecto 13737
▁pobre 13738
staat 13739
▁logo 13740
▁junto 13741
▁whisper 13742
▁touched 13743
▁몰 13744
▁Best 13745
▁sword 13746
▁dispar 13747
▁기본 13748
▁알아 13749
▁blank 13750
▁quả 13751
▁tête 13752
▁az 13753
▁gray 13754
▁atmosphere 13755
▁그때 13756
▁preocupa 13757
ateful 13758
▁contribute 13759
▁united 13760
▁관련 13761
quet 13762
▁propose 13763
▁ 13764
e 13765
a 13766
t 13767
o 13768
n 13769
i 13770
s 13771
r 13772
h 13773
l 13774
d 13775
u 13776
c 13777
m 13778
p 13779
g 13780
f 13781
w 13782
y 13783
, 13784
. 13785
b 13786
v 13787
k 13788
' 13789
z 13790
α 13791
q 13792
I 13793
j 13794
ο 13795
τ 13796
ι 13797
ε 13798
ν 13799
A 13800
S 13801
é 13802
ρ 13803
π 13804
σ 13805
T 13806
E 13807
μ 13808
x 13809
υ 13810
κ 13811
η 13812
ا 13813
C 13814
P 13815
M 13816
D 13817
λ 13818
? 13819
0 13820
ί 13821
B 13822
W 13823
ó 13824
이 13825
ل 13826
ό 13827
á 13828
1 13829
- 13830
έ 13831
à 13832
ά 13833
O 13834
N 13835
L 13836
H 13837
2 13838
ã 13839
γ 13840
í 13841
G 13842
U 13843
ω 13844
δ 13845
F 13846
ي 13847
ή 13848
R 13849
는 13850
χ 13851
다 13852
Y 13853
ç 13854
م 13855
ن 13856
い 13857
θ 13858
。 13859
ه 13860
J 13861
ύ 13862
가 13863
è 13864
ę 13865
고 13866
の 13867
و 13868
ü 13869
V 13870
에 13871
하 13872
그 13873
ł 13874
K 13875
ώ 13876
ä 13877
で 13878
ê 13879
요 13880
지 13881
ż 13882
을 13883
て 13884
니 13885
ت 13886
어 13887
5 13888
ر 13889
3 13890
と 13891
ą 13892
す 13893
φ 13894
、 13895
ب 13896
đ 13897
서 13898
し 13899
ع 13900
た 13901
9 13902
게 13903
な 13904
4 13905
に 13906
아 13907
っ 13908
ま 13909
기 13910
β 13911
도 13912
로 13913
う 13914
ś 13915
が 13916
ك 13917
있 13918
د 13919
か 13920
は 13921
은 13922
8 13923
ư 13924
6 13925
면 13926
る 13927
ö 13928
ć 13929
ف 13930
나 13931
리 13932
ん 13933
7 13934
こ 13935
Ε 13936
들 13937
한 13938
시 13939
를 13940
س 13941
거 13942
! 13943
を 13944
자 13945
의 13946
해 13947
라 13948
Q 13949
ق 13950
사 13951
ô 13952
ح 13953
れ 13954
제 13955
ξ 13956
も 13957
ú 13958
보 13959
" 13960
Z 13961
= 13962
ら 13963
으 13964
수 13965
ー 13966
ζ 13967
데 13968
ñ 13969
ß 13970
り 13971
인 13972
여 13973
습 13974
あ 13975
만 13976
的 13977
것 13978
â 13979
ộ 13980
까 13981
Κ 13982
ج 13983
주 13984
대 13985
되 13986
% 13987
õ 13988
そ 13989
러 13990
さ 13991
ì 13992
정 13993
ế 13994
분 13995
く 13996
ệ 13997
ン 13998
ù 13999
ạ 14000
だ 14001
렇 14002
き 14003
ả 14004
ش 14005
야 14006
ね 14007
스 14008
상 14009
우 14010
일 14011
ơ 14012
ò 14013
부 14014
よ 14015
ố 14016
け 14017
오 14018
Α 14019
죠 14020
一 14021
래 14022
ど 14023
ص 14024
Π 14025
때 14026
런 14027
ち 14028
금 14029
전 14030
마 14031
내 14032
ى 14033
خ 14034
안 14035
장 14036
ط 14037
ذ 14038
是 14039
구 14040
我 14041
ờ 14042
¿ 14043
ń 14044
ớ 14045
: 14046
Σ 14047
음 14048
드 14049
저 14050
え 14051
人 14052
예 14053
ấ 14054
뭐 14055
ề 14056
お 14057
적 14058
생 14059
같 14060
입 14061
겠 14062
무 14063
세 14064
ị 14065
할 14066
ス 14067
번 14068
말 14069
ϊ 14070
과 14071
문 14072
ợ 14073
É 14074
ể 14075
ă 14076
ψ 14077
Τ 14078
ủ 14079
や 14080
했 14081
신 14082
你 14083
ト 14084
었 14085
원 14086
성 14087
트 14088
없 14089
간 14090
大 14091
진 14092
イ 14093
모 14094
더 14095
ậ 14096
不 14097
ض 14098
려 14099
실 14100
바 14101
조 14102
네 14103
ル 14104
히 14105
Δ 14106
日 14107
ز 14108
소 14109
비 14110
ự 14111
了 14112
중 14113
동 14114
와 14115
계 14116
경 14117
용 14118
つ 14119
치 14120
Έ 14121
건 14122
这 14123
위 14124
わ 14125
단 14126
ッ 14127
람 14128
많 14129
ث 14130
ゃ 14131
개 14132
든 14133
め 14134
좀 14135
Μ 14136
않 14137
ラ 14138
각 14139
터 14140
个 14141
ầ 14142
َ 14143
유 14144
미 14145
합 14146
じ 14147
공 14148
上 14149
リ 14150
Ο 14151
ứ 14152
غ 14153
ょ 14154
또 14155
ク 14156
み 14157
今 14158
선 14159
有 14160
좋 14161
님 14162
X 14163
물 14164
ア 14165
화 14166
就 14167
中 14168
ữ 14169
出 14170
ụ 14171
방 14172
Γ 14173
영 14174
Θ 14175
너 14176
근 14177
ろ 14178
연 14179
ở 14180
식 14181
국 14182
ồ 14183
思 14184
두 14185
分 14186
本 14187
在 14188
せ 14189
명 14190
来 14191
会 14192
운 14193
ء 14194
관 14195
ご 14196
작 14197
Η 14198
당 14199
재 14200
見 14201
르 14202
方 14203
던 14204
生 14205
年 14206
잘 14207
걸 14208
タ 14209
事 14210
발 14211
속 14212
체 14213
냐 14214
他 14215
된 14216
ọ 14217
버 14218
차 14219
行 14220
子 14221
얘 14222
약 14223
$ 14224
ắ 14225
要 14226
シ 14227
; 14228
반 14229
업 14230
们 14231
크 14232
파 14233
– 14234
알 14235
년 14236
행 14237
살 14238
那 14239
自 14240
Ν 14241
時 14242
매 14243
ئ 14244
산 14245
手 14246
国 14247
ổ 14248
쪽 14249
심 14250
前 14251
么 14252
î 14253
회 14254
통 14255
ừ 14256
교 14257
처 14258
プ 14259
以 14260
ロ 14261
올 14262
好 14263
늘 14264
감 14265
ド 14266
결 14267
타 14268
점 14269
양 14270
돼 14271
직 14272
ば 14273
느 14274
받 14275
럼 14276
록 14277
カ 14278
프 14279
디 14280
レ 14281
回 14282
啊 14283
배 14284
집 14285
说 14286
법 14287
フ 14288
레 14289
ë 14290
チ 14291
설 14292
ỉ 14293
û 14294
気 14295
본 14296
メ 14297
ジ 14298
른 14299
냥 14300
잖 14301
못 14302
当 14303
能 14304
임 14305
家 14306
Υ 14307
地 14308
았 14309
막 14310
현 14311
感 14312
Β 14313
포 14314
下 14315
入 14316
多 14317
떻 14318
最 14319
강 14320
달 14321
피 14322
間 14323
역 14324
등 14325
테 14326
천 14327
볼 14328
可 14329
マ 14330
ũ 14331
コ 14332
ظ 14333
질 14334
Ό 14335
력 14336
랑 14337
태 14338
남 14339
言 14340
불 14341
형 14342
ず 14343
都 14344
何 14345
者 14346
」 14347
떤 14348
「 14349
짜 14350
合 14351
ặ 14352
될 14353
날 14354
去 14355
됩 14356
バ 14357
ほ 14358
월 14359
표 14360
난 14361
워 14362
확 14363
능 14364
目 14365
추 14366
준 14367
맞 14368
作 14369
누 14370
得 14371
먹 14372
청 14373
왜 14374
ź 14375
따 14376
到 14377
グ 14378
全 14379
목 14380
Ι 14381
호 14382
呢 14383
後 14384
학 14385
절 14386
高 14387
也 14388
ý 14389
所 14390
ム 14391
ِ 14392
왔 14393
Λ 14394
져 14395
격 14396
テ 14397
ử 14398
후 14399
部 14400
場 14401
ャ 14402
体 14403
Ç 14404
복 14405
품 14406
È 14407
노 14408
¡ 14409
종 14410
ナ 14411
キ 14412
先 14413
ウ 14414
출 14415
学 14416
パ 14417
点 14418
줄 14419
키 14420
小 14421
필 14422
意 14423
定 14424
카 14425
然 14426
코 14427
道 14428
열 14429
月 14430
편 14431
루 14432
함 14433
心 14434
用 14435
度 14436
돌 14437
天 14438
셔 14439
민 14440
택 14441
新 14442
께 14443
動 14444
온 14445
为 14446
オ 14447
面 14448
知 14449
변 14450
理 14451
没 14452
째 14453
ẽ 14454
쓰 14455
씀 14456
색 14457
싶 14458
サ 14459
봐 14460
며 14461
对 14462
げ 14463
性 14464
力 14465
희 14466
길 14467
앞 14468
ْ 14469
时 14470
デ 14471
想 14472
최 14473
권 14474
还 14475
브 14476
름 14477
べ 14478
였 14479
発 14480
셨 14481
초 14482
后 14483
얼 14484
明 14485
什 14486
갈 14487
손 14488
잡 14489
됐 14490
억 14491
놓 14492
取 14493
겁 14494
토 14495
対 14496
린 14497
메 14498
看 14499
머 14500
使 14501
ُ 14502
成 14503
私 14504
ニ 14505
ỏ 14506
ィ 14507
ュ 14508
평 14509
続 14510
ブ 14511
울 14512
物 14513
애 14514
通 14515
참 14516
ễ 14517
情 14518
実 14519
同 14520
着 14521
증 14522
持 14523
외 14524
박 14525
새 14526
和 14527
판 14528
代 14529
응 14530
언 14531
選 14532
별 14533
렸 14534
석 14535
ằ 14536
真 14537
급 14538
’ 14539
話 14540
外 14541
表 14542
食 14543
특 14544
험 14545
内 14546
투 14547
Ü 14548
ẩ 14549
市 14550
ï 14551
순 14552
친 14553
ざ 14554
향 14555
활 14556
ミ 14557
죽 14558
ビ 14559
긴 14560
굉 14561
儿 14562
플 14563
움 14564
ダ 14565
봤 14566
황 14567
ĩ 14568
œ 14569
글 14570
水 14571
론 14572
女 14573
Ä 14574
東 14575
ぐ 14576
항 14577
数 14578
료 14579
・ 14580
릴 14581
起 14582
过 14583
長 14584
갖 14585
힘 14586
란 14587
독 14588
ぱ 14589
끝 14590
果 14591
환 14592
エ 14593
군 14594
次 14595
関 14596
돈 14597
金 14598
Φ 14599
ズ 14600
ピ 14601
클 14602
世 14603
山 14604
很 14605
田 14606
三 14607
채 14608
망 14609
찾 14610
완 14611
술 14612
Ρ 14613
빠 14614
أ 14615
뒤 14616
相 14617
重 14618
立 14619
션 14620
現 14621
딱 14622
겨 14623
접 14624
変 14625
常 14626
開 14627
打 14628
ョ 14629
ؤ 14630
눈 14631
ỗ 14632
엄 14633
戦 14634
ẫ 14635
少 14636
二 14637
法 14638
へ 14639
Χ 14640
番 14641
化 14642
백 14643
티 14644
特 14645
初 14646
解 14647
现 14648
넣 14649
里 14650
近 14651
名 14652
結 14653
축 14654
큰 14655
ハ 14656
책 14657
正 14658
ポ 14659
海 14660
安 14661
十 14662
— 14663
加 14664
커 14665
립 14666
ワ 14667
Ά 14668
考 14669
ボ 14670
样 14671
吧 14672
び 14673
活 14674
먼 14675
公 14676
락 14677
受 14678
主 14679
담 14680
向 14681
状 14682
량 14683
ツ 14684
갔 14685
충 14686
승 14687
곳 14688
身 14689
졌 14690
位 14691
画 14692
给 14693
強 14694
吗 14695
벌 14696
業 14697
ّ 14698
족 14699
존 14700
跟 14701
창 14702
些 14703
切 14704
万 14705
味 14706
セ 14707
ネ 14708
넘 14709
쳐 14710
림 14711
뭔 14712
령 14713
써 14714
界 14715
ふ 14716
케 14717
ベ 14718
始 14719
병 14720
육 14721
련 14722
再 14723
決 14724
À 14725
勝 14726
ぶ 14727
송 14728
比 14729
之 14730
男 14731
높 14732
因 14733
블 14734
페 14735
즈 14736
候 14737
直 14738
社 14739
報 14740
답 14741
패 14742
如 14743
信 14744
期 14745
십 14746
太 14747
品 14748
京 14749
老 14750
낌 14751
々 14752
北 14753
꾸 14754
악 14755
ケ 14756
教 14757
但 14758
검 14759
몇 14760
취 14761
ひ 14762
ェ 14763
풀 14764
己 14765
非 14766
觉 14767
혼 14768
野 14769
류 14770
떨 14771
갑 14772
平 14773
保 14774
第 14775
켜 14776
做 14777
잠 14778
찬 14779
实 14780
更 14781
民 14782
む 14783
밖 14784
话 14785
끼 14786
車 14787
県 14788
광 14789
問 14790
익 14791
ホ 14792
씩 14793
씨 14794
原 14795
种 14796
店 14797
깨 14798
ぎ 14799
怎 14800
팔 14801
닌 14802
込 14803
像 14804
確 14805
モ 14806
西 14807
呀 14808
규 14809
귀 14810
白 14811
楽 14812
文 14813
别 14814
雨 14815
찍 14816
액 14817
走 14818
똑 14819
元 14820
工 14821
把 14822
指 14823
첫 14824
릭 14825
必 14826
베 14827
붙 14828
美 14829
連 14830
警 14831
맛 14832
政 14833
빨 14834
혀 14835
付 14836
台 14837
开 14838
空 14839
ة 14840
슨 14841
ガ 14842
調 14843
发 14844
让 14845
件 14846
影 14847
利 14848
经 14849
줘 14850
엔 14851
김 14852
放 14853
착 14854
ς 14855
믿 14856
呃 14857
接 14858
聞 14859
被 14860
녕 14861
口 14862
容 14863
혹 14864
몸 14865
嗯 14866
ẻ 14867
났 14868
員 14869
몰 14870
書 14871
題 14872
Á 14873
予 14874
風 14875
값 14876
違 14877
色 14878
流 14879
川 14880
튼 14881
僕 14882
짝 14883
쉽 14884
形 14885
왕 14886
뜻 14887
삼 14888
半 14889
組 14890
円 14891
住 14892
효 14893
큼 14894
死 14895
制 14896
機 14897
침 14898
引 14899
둘 14900
찮 14901
伝 14902
早 14903
而 14904
其 14905
進 14906
様 14907
허 14908
ぜ 14909
害 14910
于 14911
꼭 14912
ẹ 14913
탄 14914
願 14915
밀 14916
골 14917
ソ 14918
皆 14919
괜 14920
득 14921
떠 14922
集 14923
友 14924
& 14925
認 14926
置 14927
注 14928
料 14929
送 14930
個 14931
쉬 14932
ペ 14933
견 14934
ぞ 14935
交 14936
待 14937
럽 14938
島 14939
疑 14940
랬 14941
反 14942
木 14943
校 14944
構 14945
녀 14946
投 14947
굴 14948
完 14949
夫 14950
足 14951
율 14952
싸 14953
它 14954
朝 14955
퍼 14956
ギ 14957
총 14958
범 14959
밑 14960
例 14961
量 14962
議 14963
応 14964
] 14965
神 14966
只 14967
電 14968
[ 14969
ゴ 14970
終 14971
컨 14972
죄 14973
周 14974
슬 14975
问 14976
长 14977
落 14978
북 14979
Ή 14980
止 14981
広 14982
링 14983
火 14984
옵 14985
音 14986
側 14987
際 14988
间 14989
극 14990
花 14991
降 14992
温 14993
支 14994
암 14995
告 14996
랜 14997
팅 14998
過 14999
틀 15000
記 15001
球 15002
屋 15003
残 15004
ノ 15005
텐 15006
仕 15007
她 15008
五 15009
演 15010
提 15011
院 15012
声 15013
運 15014
템 15015
経 15016
폭 15017
四 15018
示 15019
区 15020
탈 15021
式 15022
듯 15023
張 15024
탁 15025
光 15026
等 15027
动 15028
路 15029
ァ 15030
깔 15031
两 15032
係 15033
無 15034
럴 15035
任 15036
눌 15037
線 15038
俺 15039
철 15040
察 15041
難 15042
配 15043
ゆ 15044
측 15045
由 15046
ỹ 15047
算 15048
介 15049
格 15050
놀 15051
튜 15052
命 15053
Ö 15054
別 15055
听 15056
즘 15057
防 15058
段 15059
歳 15060
솔 15061
設 15062
才 15063
態 15064
急 15065
땅 15066
治 15067
母 15068
펴 15069
夜 15070
転 15071
짓 15072
关 15073
빼 15074
吃 15075
技 15076
午 15077
业 15078
基 15079
週 15080
病 15081
参 15082
乗 15083
쁘 15084
칠 15085
客 15086
南 15087
歌 15088
王 15089
널 15090
옆 15091
쭉 15092
増 15093
섯 15094
各 15095
궁 15096
求 15097
进 15098
速 15099
映 15100
土 15101
共 15102
〈 15103
뿐 15104
葉 15105
建 15106
村 15107
消 15108
父 15109
욕 15110
象 15111
〉 15112
끔 15113
풍 15114
育 15115
깐 15116
应 15117
뉴 15118
إ 15119
엇 15120
률 15121
ヒ 15122
士 15123
失 15124
획 15125
ỷ 15126
机 15127
랍 15128
百 15129
供 15130
干 15131
試 15132
首 15133
管 15134
差 15135
種 15136
査 15137
已 15138
快 15139
Ξ 15140
呼 15141
읽 15142
ぁ 15143
優 15144
医 15145
혜 15146
府 15147
妈 15148
닥 15149
谷 15150
꺼 15151
与 15152
字 15153
징 15154
孩 15155
染 15156
改 15157
뭘 15158
ザ 15159
売 15160
材 15161
断 15162
쓸 15163
統 15164
ỳ 15165
型 15166
系 15167
쟁 15168
千 15169
八 15170
越 15171
産 15172
喜 15173
ゲ 15174
从 15175
뜨 15176
語 15177
判 15178
局 15179
務 15180
返 15181
봉 15182
듣 15183
又 15184
례 15185
Ó 15186
该 15187
꿈 15188
엘 15189
説 15190
벽 15191
왼 15192
君 15193
找 15194
検 15195
計 15196
염 15197
整 15198
캐 15199
얻 15200
登 15201
昨 15202
东 15203
) 15204
号 15205
춰 15206
辺 15207
농 15208
줬 15209
攻 15210
総 15211
望 15212
突 15213
超 15214
압 15215
钱 15216
Ω 15217
策 15218
哎 15219
킬 15220
況 15221
追 15222
親 15223
九 15224
곱 15225
軍 15226
벨 15227
您 15228
朋 15229
즉 15230
센 15231
( 15232
撃 15233
石 15234
科 15235
程 15236
或 15237
램 15238
놨 15239
딩 15240
见 15241
师 15242
곡 15243
限 15244
肉 15245
深 15246
商 15247
緒 15248
歩 15249
题 15250
素 15251
将 15252
边 15253
층 15254
줍 15255
헤 15256
藤 15257
봅 15258
맨 15259
展 15260
視 15261
城 15262
밥 15263
彼 15264
찰 15265
党 15266
Ζ 15267
存 15268
삶 15269
ヤ 15270
겼 15271
司 15272
根 15273
츠 15274
컴 15275
즐 15276
ỡ 15277
写 15278
念 15279
良 15280
助 15281
념 15282
숙 15283
婚 15284
ẳ 15285
ォ 15286
観 15287
웃 15288
福 15289
ぼ 15290
谢 15291
低 15292
电 15293
균 15294
づ 15295
낮 15296
팀 15297
咱 15298
车 15299
州 15300
井 15301
響 15302
컬 15303
렵 15304
験 15305
質 15306
族 15307
잔 15308
哪 15309
无 15310
守 15311
슷 15312
头 15313
器 15314
絶 15315
頭 15316
古 15317
曲 15318
買 15319
气 15320
備 15321
六 15322
普 15323
롭 15324
割 15325
域 15326
납 15327
属 15328
役 15329
숨 15330
服 15331
飛 15332
객 15333
끌 15334
닙 15335
협 15336
録 15337
紹 15338
官 15339
랐 15340
뀌 15341
빛 15342
흐 15343
答 15344
멀 15345
故 15346
案 15347
離 15348
星 15349
価 15350
场 15351
撮 15352
領 15353
씬 15354
几 15355
右 15356
担 15357
웠 15358
핑 15359
研 15360
町 15361
앙 15362
* 15363
슈 15364
옥 15365
폰 15366
밝 15367
具 15368
未 15369
造 15370
雪 15371
每 15372
松 15373
息 15374
칼 15375
負 15376
究 15377
빌 15378
両 15379
嘛 15380
香 15381
帰 15382
悪 15383
七 15384
괴 15385
킹 15386
宅 15387
達 15388
援 15389
除 15390
爱 15391
企 15392
症 15393
熱 15394
曜 15395
쨌 15396
誰 15397
値 15398
米 15399
勢 15400
権 15401
欢 15402
变 15403
턴 15404
덕 15405
倒 15406
叫 15407
焼 15408
훨 15409
苦 15410
带 15411
愛 15412
쁜 15413
覚 15414
激 15415
左 15416
丈 15417
需 15418
롤 15419
콘 15420
境 15421
房 15422
省 15423
꽃 15424
》 15425
戻 15426
振 15427
렌 15428
若 15429
홍 15430
笑 15431
략 15432
뽑 15433
移 15434
清 15435
ゼ 15436
° 15437
犯 15438
冷 15439
園 15440
结 15441
景 15442
밌 15443
習 15444
亡 15445
델 15446
《 15447
条 15448
벤 15449
装 15450
녹 15451
便 15452
押 15453
覧 15454
団 15455
刚 15456
青 15457
争 15458
礼 15459
及 15460
姿 15461
収 15462
横 15463
史 15464
„ 15465
迎 15466
칭 15467
単 15468
껴 15469
“ 15470
岡 15471
底 15472
夏 15473
率 15474
危 15475
뷰 15476
赤 15477
休 15478
術 15479
顔 15480
퓨 15481
윤 15482
폐 15483
꼬 15484
낙 15485
쵸 15486
够 15487
殺 15488
室 15489
깊 15490
角 15491
较 15492
쿠 15493
Ś 15494
旅 15495
準 15496
产 15497
席 15498
街 15499
飲 15500
酒 15501
帮 15502
留 15503
옷 15504
难 15505
옛 15506
记 15507
片 15508
爸 15509
总 15510
푸 15511
波 15512
列 15513
哦 15514
놈 15515
施 15516
宮 15517
包 15518
希 15519
背 15520
꿔 15521
밤 15522
識 15523
좌 15524
및 15525
논 15526
座 15527
減 15528
久 15529
職 15530
办 15531
菜 15532
马 15533
찌 15534
认 15535
흔 15536
넷 15537
셀 15538
ً 15539
떡 15540
黒 15541
捕 15542
讲 15543
请 15544
앉 15545
抜 15546
낼 15547
韓 15548
숫 15549
谁 15550
싫 15551
細 15552
逃 15553
働 15554
且 15555
웨 15556
至 15557
门 15558
뿌 15559
照 15560
핵 15561
혈 15562
칙 15563
武 15564
江 15565
破 15566
済 15567
氏 15568
킨 15569
類 15570
닐 15571
約 15572
推 15573
哥 15574
療 15575
셋 15576
健 15577
独 15578
模 15579
资 15580
規 15581
ヨ 15582
寄 15583
油 15584
쯤 15585
짐 15586
英 15587
舞 15588
門 15589
흡 15590
빈 15591
晴 15592
渡 15593
휴 15594
林 15595
功 15596
挙 15597
玉 15598
橋 15599
쳤 15600
避 15601
멋 15602
军 15603
布 15604
逆 15605
买 15606
資 15607
届 15608
毎 15609
此 15610
救 15611
썼 15612
論 15613
处 15614
眼 15615
确 15616
错 15617
板 15618
맥 15619
申 15620
걱 15621
盛 15622
뛰 15623
탕 15624
报 15625
픈 15626
富 15627
岸 15628
닫 15629
훈 15630
精 15631
亲 15632
끊 15633
웹 15634
庭 15635
頑 15636
駅 15637
쇼 15638
拿 15639
効 15640
含 15641
談 15642
收 15643
姐 15644
秒 15645
船 15646
派 15647
싱 15648
兵 15649
訪 15650
森 15651
Ψ 15652
욱 15653
幸 15654
痛 15655
頂 15656
ユ 15657
픽 15658
読 15659
멸 15660
囲 15661
털 15662
짧 15663
척 15664
探 15665
ẵ 15666
냈 15667
몬 15668
员 15669
零 15670
証 15671
捜 15672
震 15673
罪 15674
并 15675
春 15676
넓 15677
康 15678
練 15679
退 15680
修 15681
密 15682
営 15683
굳 15684
義 15685
+ 15686
윙 15687
災 15688
印 15689
텔 15690
奥 15691
娘 15692
階 15693
啦 15694
곤 15695
콜 15696
倍 15697
洗 15698
裁 15699
末 15700
ぇ 15701
並 15702
运 15703
庁 15704
易 15705
師 15706
张 15707
雲 15708
秋 15709
务 15710
퇴 15711
挑 15712
圧 15713
血 15714
索 15715
軽 15716
阿 15717
끄 15718
暑 15719
놔 15720
딸 15721
렉 15722
둥 15723
섭 15724
켓 15725
ヘ 15726
聴 15727
댓 15728
弟 15729
慢 15730
満 15731
居 15732
往 15733
鮮 15734
護 15735
节 15736
港 15737
宝 15738
战 15739
낸 15740
替 15741
停 15742
单 15743
余 15744
« 15745
벗 15746
短 15747
描 15748
诉 15749
積 15750
랫 15751
臣 15752
乐 15753
復 15754
흘 15755
离 15756
静 15757
恐 15758
専 15759
选 15760
젝 15761
帯 15762
戸 15763
톤 15764
刻 15765
홀 15766
멘 15767
佐 15768
混 15769
计 15770
継 15771
吉 15772
쩌 15773
洋 15774
険 15775
茶 15776
這 15777
덜 15778
» 15779
묻 15780
源 15781
触 15782
队 15783
崎 15784
委 15785
頼 15786
河 15787
挺 15788
遺 15789
斯 15790
伸 15791
섬 15792
탑 15793
书 15794
晚 15795
馬 15796
况 15797
逮 15798
協 15799
ぬ 15800
펜 15801
厳 15802
촬 15803
쓴 15804
덩 15805
費 15806
텍 15807
꽤 15808
风 15809
ゅ 15810
似 15811
밍 15812
散 15813
决 15814
般 15815
敗 15816
듭 15817
補 15818
试 15819
忘 15820
尽 15821
黄 15822
導 15823
郎 15824
슴 15825
准 15826
牛 15827
極 15828
폴 15829
微 15830
촉 15831
寒 15832
쌓 15833
/ 15834
陸 15835
兄 15836
怕 15837
図 15838
뇌 15839
ぽ 15840
令 15841
强 15842
잊 15843
句 15844
嫌 15845
拉 15846
랄 15847
給 15848
骨 15849
裏 15850
릿 15851
吸 15852
爆 15853
흥 15854
館 15855
製 15856
멍 15857
丸 15858
票 15859
志 15860
빵 15861
삭 15862
럭 15863
簡 15864
互 15865
端 15866
휘 15867
阪 15868
玩 15869
网 15870
拜 15871
薬 15872
£ 15873
障 15874
監 15875
異 15876
甘 15877
仲 15878
』 15879
詳 15880
肯 15881
눠 15882
伊 15883
迫 15884
衛 15885
『 15886
잉 15887
렴 15888
歴 15889
銀 15890
皇 15891
视 15892
꿀 15893
탐 15894
乱 15895
啥 15896
쌍 15897
팬 15898
룹 15899
致 15900
抗 15901
折 15902
€ 15903
곧 15904
팩 15905
困 15906
測 15907
授 15908
紙 15909
传 15910
環 15911
瞬 15912
据 15913
随 15914
緊 15915
备 15916
힌 15917
枚 15918
识 15919
絵 15920
植 15921
늦 15922
맡 15923
節 15924
射 15925
厚 15926
暮 15927
群 15928
잃 15929
毛 15930
芸 15931
칸 15932
홈 15933
巻 15934
쪼 15935
沖 15936
暴 15937
达 15938
賞 15939
排 15940
隊 15941
衣 15942
催 15943
뒷 15944
엉 15945
草 15946
宇 15947
젠 15948
챙 15949
랙 15950
观 15951
踏 15952
융 15953
价 15954
导 15955
巡 15956
许 15957
刺 15958
룩 15959
틱 15960
傷 15961
弱 15962
习 15963
设 15964
냉 15965
핸 15966
怖 15967
옮 15968
永 15969
豆 15970
块 15971
途 15972
否 15973
类 15974
켰 15975
Ô 15976
饭 15977
寝 15978
夢 15979
릅 15980
述 15981
调 15982
닝 15983
证 15984
為 15985
督 15986
캠 15987
班 15988
戒 15989
筋 15990
妻 15991
税 15992
善 15993
律 15994
创 15995
웅 15996
克 15997
联 15998
혔 15999
弾 16000
步 16001
秘 16002
処 16003
欲 16004
连 16005
侵 16006
术 16007
課 16008
尔 16009
適 16010
弁 16011
샤 16012
魔 16013
싹 16014
샀 16015
依 16016
幕 16017
博 16018
딜 16019
奈 16020
販 16021
頃 16022
线 16023
拡 16024
远 16025
冬 16026
患 16027
抱 16028
헌 16029
評 16030
延 16031
遠 16032
− 16033
湾 16034
查 16035
縄 16036
鉄 16037
뼈 16038
므 16039
俩 16040
宿 16041
労 16042
額 16043
德 16044
혁 16045
쩔 16046
奇 16047
承 16048
妹 16049
掛 16050
距 16051
忙 16052
싼 16053
塁 16054
喝 16055
论 16056
砂 16057
堂 16058
控 16059
톡 16060
雷 16061
皮 16062
徴 16063
粉 16064
ٍ 16065
힐 16066
睡 16067
称 16068
麻 16069
智 16070
遊 16071
航 16072
游 16073
躍 16074
億 16075
魚 16076
順 16077
ā 16078
狙 16079
児 16080
怪 16081
針 16082
站 16083
议 16084
析 16085
津 16086
李 16087
맹 16088
엑 16089
遅 16090
튀 16091
恋 16092
费 16093
飯 16094
养 16095
첨 16096
操 16097
爷 16098
뚫 16099
历 16100
띄 16101
몽 16102
昔 16103
섞 16104
甲 16105
級 16106
转 16107
訴 16108
脚 16109
却 16110
Ú 16111
续 16112
젊 16113
愿 16114
核 16115
뻐 16116
池 16117
묘 16118
標 16119
턱 16120
幅 16121
換 16122
脱 16123
졸 16124
尾 16125
红 16126
멈 16127
季 16128
拍 16129
Ż 16130
宣 16131
专 16132
吹 16133
团 16134
摘 16135
깜 16136
酸 16137
폼 16138
露 16139
ٌ 16140
态 16141
땡 16142
윈 16143
롱 16144
沢 16145
复 16146
统 16147
興 16148
固 16149
即 16150
趣 16151
끗 16152
詰 16153
轻 16154
繰 16155
坐 16156
坂 16157
떼 16158
岩 16159
束 16160
빡 16161
許 16162
梅 16163
틴 16164
編 16165
競 16166
满 16167
絡 16168
华 16169
낫 16170
ぷ 16171
充 16172
盗 16173
헬 16174
깝 16175
紧 16176
핀 16177
护 16178
兴 16179
릎 16180
寺 16181
份 16182
壁 16183
浮 16184
載 16185
努 16186
윗 16187
렬 16188
養 16189
흰 16190
伤 16191
借 16192
묶 16193
複 16194
领 16195
壊 16196
齢 16197
迷 16198
맙 16199
义 16200
效 16201
握 16202
适 16203
跑 16204
請 16205
، 16206
浜 16207
們 16208
겪 16209
둔 16210
녁 16211
猫 16212
奪 16213
롯 16214
앱 16215
쿨 16216
巨 16217
鳥 16218
床 16219
織 16220
맵 16221
禁 16222
岁 16223
끈 16224
崩 16225
뮤 16226
隠 16227
免 16228
疲 16229
脳 16230
흑 16231
聊 16232
렀 16233
御 16234
概 16235
펼 16236
華 16237
卖 16238
谈 16239
랩 16240
哈 16241
组 16242
险 16243
暗 16244
獲 16245
辛 16246
農 16247
콩 16248
” 16249
엽 16250
뵙 16251
봄 16252
伴 16253
豊 16254
央 16255
播 16256
响 16257
쫓 16258
徒 16259
깥 16260
꽂 16261
版 16262
퀴 16263
副 16264
塩 16265
规 16266
腕 16267
泉 16268
遇 16269
謝 16270
热 16271
亚 16272
큐 16273
抑 16274
赶 16275
춤 16276
納 16277
캔 16278
陽 16279
略 16280
덤 16281
묵 16282
既 16283
羽 16284
悩 16285
懸 16286
质 16287
뢰 16288
暖 16289
닉 16290
益 16291
盤 16292
빙 16293
냄 16294
丁 16295
广 16296
豪 16297
腹 16298
刑 16299
秀 16300
袋 16301
뜯 16302
熊 16303
닭 16304
药 16305
携 16306
겹 16307
环 16308
敢 16309
语 16310
붕 16311
昼 16312
值 16313
셉 16314
跳 16315
땐 16316
訳 16317
閉 16318
従 16319
融 16320
幹 16321
鬼 16322
卵 16323
约 16324
쇄 16325
旧 16326
雑 16327
株 16328
双 16329
均 16330
换 16331
冠 16332
財 16333
燃 16334
级 16335
透 16336
掉 16337
꾼 16338
毒 16339
杀 16340
닦 16341
驚 16342
뚜 16343
另 16344
닿 16345
股 16346
刀 16347
ゾ 16348
图 16349
컷 16350
假 16351
箱 16352
绝 16353
콤 16354
阳 16355
꼼 16356
验 16357
欠 16358
듬 16359
终 16360
招 16361
拠 16362
龙 16363
払 16364
际 16365
读 16366
쌀 16367
枝 16368
怒 16369
勉 16370
占 16371
择 16372
魅 16373
벼 16374
웬 16375
؟ 16376
众 16377
춘 16378
삽 16379
虽 16380
夕 16381
辞 16382
輩 16383
